/* Copyright 2023 The TensorFlow Authors. All Rights Reserved.

Licensed under the Apache License, Version 2.0 (the "License");
you may not use this file except in compliance with the License.
You may obtain a copy of the License at

    http://www.apache.org/licenses/LICENSE-2.0

Unless required by applicable law or agreed to in writing, software
distributed under the License is distributed on an "AS IS" BASIS,
WITHOUT WARRANTIES OR CONDITIONS OF ANY KIND, either express or implied.
See the License for the specific language governing permissions and
limitations under the License.
==============================================================================*/

// This is a standard TensorFlow Lite FlatBuffer model file that has been
// converted into a C data array, so it can be easily compiled into a binary
// for devices that don't have a file system. It was created using the command:
// xxd -i model.tflite > model.cc

#include "micro_features_model.h"

// Keep aligned to 16 bytes for CMSIS
alignas(16) const unsigned char g_model[] = {
  0x1c, 0x00, 0x00, 0x00, 0x54, 0x46, 0x4c, 0x33, 0x14, 0x00, 0x20, 0x00,
  0x1c, 0x00, 0x18, 0x00, 0x14, 0x00, 0x10, 0x00, 0x0c, 0x00, 0x00, 0x00,
  0x08, 0x00, 0x04, 0x00, 0x14, 0x00, 0x00, 0x00, 0x1c, 0x00, 0x00, 0x00,
  0x80, 0x00, 0x00, 0x00, 0xd8, 0x00, 0x00, 0x00, 0x30, 0x41, 0x00, 0x00,
  0x40, 0x41, 0x00, 0x00, 0x80, 0x65, 0x00, 0x00, 0x03, 0x00, 0x00, 0x00,
  0x01, 0x00, 0x00, 0x00, 0x04, 0x00, 0x00, 0x00, 0x7e, 0xbb, 0xff, 0xff,
  0x0c, 0x00, 0x00, 0x00, 0x1c, 0x00, 0x00, 0x00, 0x38, 0x00, 0x00, 0x00,
  0x0f, 0x00, 0x00, 0x00, 0x73, 0x65, 0x72, 0x76, 0x69, 0x6e, 0x67, 0x5f,
  0x64, 0x65, 0x66, 0x61, 0x75, 0x6c, 0x74, 0x00, 0x01, 0x00, 0x00, 0x00,
  0x04, 0x00, 0x00, 0x00, 0x9c, 0xff, 0xff, 0xff, 0x23, 0x00, 0x00, 0x00,
  0x04, 0x00, 0x00, 0x00, 0x05, 0x00, 0x00, 0x00, 0x6d, 0x6f, 0x64, 0x65,
  0x6c, 0x00, 0x00, 0x00, 0x01, 0x00, 0x00, 0x00, 0x04, 0x00, 0x00, 0x00,
  0x82, 0xbb, 0xff, 0xff, 0x04, 0x00, 0x00, 0x00, 0x07, 0x00, 0x00, 0x00,
  0x69, 0x6e, 0x70, 0x75, 0x74, 0x5f, 0x31, 0x00, 0x02, 0x00, 0x00, 0x00,
  0x34, 0x00, 0x00, 0x00, 0x04, 0x00, 0x00, 0x00, 0xdc, 0xff, 0xff, 0xff,
  0x26, 0x00, 0x00, 0x00, 0x04, 0x00, 0x00, 0x00, 0x13, 0x00, 0x00, 0x00,
  0x43, 0x4f, 0x4e, 0x56, 0x45, 0x52, 0x53, 0x49, 0x4f, 0x4e, 0x5f, 0x4d,
  0x45, 0x54, 0x41, 0x44, 0x41, 0x54, 0x41, 0x00, 0x08, 0x00, 0x0c, 0x00,
  0x08, 0x00, 0x04, 0x00, 0x08, 0x00, 0x00, 0x00, 0x25, 0x00, 0x00, 0x00,
  0x04, 0x00, 0x00, 0x00, 0x13, 0x00, 0x00, 0x00, 0x6d, 0x69, 0x6e, 0x5f,
  0x72, 0x75, 0x6e, 0x74, 0x69, 0x6d, 0x65, 0x5f, 0x76, 0x65, 0x72, 0x73,
  0x69, 0x6f, 0x6e, 0x00, 0x27, 0x00, 0x00, 0x00, 0x54, 0x40, 0x00, 0x00,
  0x4c, 0x40, 0x00, 0x00, 0x38, 0x40, 0x00, 0x00, 0x24, 0x40, 0x00, 0x00,
  0x10, 0x40, 0x00, 0x00, 0x08, 0x40, 0x00, 0x00, 0xf0, 0x3f, 0x00, 0x00,
  0x54, 0x3f, 0x00, 0x00, 0xfc, 0x3b, 0x00, 0x00, 0x8c, 0x3b, 0x00, 0x00,
  0xfc, 0x39, 0x00, 0x00, 0x8c, 0x39, 0x00, 0x00, 0x3c, 0x25, 0x00, 0x00,
  0xcc, 0x24, 0x00, 0x00, 0x3c, 0x17, 0x00, 0x00, 0xec, 0x16, 0x00, 0x00,
  0xdc, 0x0d, 0x00, 0x00, 0x8c, 0x0d, 0x00, 0x00, 0x7c, 0x04, 0x00, 0x00,
  0x2c, 0x04, 0x00, 0x00, 0x0c, 0x01, 0x00, 0x00, 0x04, 0x01, 0x00, 0x00,
  0xfc, 0x00, 0x00, 0x00, 0xf4, 0x00, 0x00, 0x00, 0xec, 0x00, 0x00, 0x00,
  0xe4, 0x00, 0x00, 0x00, 0xdc, 0x00, 0x00, 0x00, 0xd4, 0x00, 0x00, 0x00,
  0xcc, 0x00, 0x00, 0x00, 0xc4, 0x00, 0x00, 0x00, 0xbc, 0x00, 0x00, 0x00,
  0xb4, 0x00, 0x00, 0x00, 0xac, 0x00, 0x00, 0x00, 0xa4, 0x00, 0x00, 0x00,
  0x9c, 0x00, 0x00, 0x00, 0x94, 0x00, 0x00, 0x00, 0x8c, 0x00, 0x00, 0x00,
  0x6c, 0x00, 0x00, 0x00, 0x04, 0x00, 0x00, 0x00, 0x92, 0xbc, 0xff, 0xff,
  0x04, 0x00, 0x00, 0x00, 0x58, 0x00, 0x00, 0x00, 0x0c, 0x00, 0x00, 0x00,
  0x08, 0x00, 0x0e, 0x00, 0x08, 0x00, 0x04, 0x00, 0x08, 0x00, 0x00, 0x00,
  0x10, 0x00, 0x00, 0x00, 0x28, 0x00, 0x00, 0x00, 0x00, 0x00, 0x06, 0x00,
  0x08, 0x00, 0x04, 0x00, 0x06, 0x00, 0x00, 0x00, 0x04, 0x00, 0x00, 0x00,
  0x01, 0x00, 0x00, 0x00, 0xeb, 0x03, 0x00, 0x00, 0x00, 0x00, 0x0a, 0x00,
  0x10, 0x00, 0x0c, 0x00, 0x08, 0x00, 0x04, 0x00, 0x0a, 0x00, 0x00, 0x00,
  0x01, 0x00, 0x00, 0x00, 0x02, 0x00, 0x00, 0x00, 0x04, 0x00, 0x00, 0x00,
  0x06, 0x00, 0x00, 0x00, 0x32, 0x2e, 0x31, 0x31, 0x2e, 0x30, 0x00, 0x00,
  0xf6, 0xbc, 0xff, 0xff, 0x04, 0x00, 0x00, 0x00, 0x10, 0x00, 0x00, 0x00,
  0x31, 0x2e, 0x31, 0x34, 0x2e, 0x30, 0x00, 0x00, 0x00, 0x00, 0x00, 0x00,
  0x00, 0x00, 0x00, 0x00, 0x40, 0x9d, 0xff, 0xff, 0x44, 0x9d, 0xff, 0xff,
  0x48, 0x9d, 0xff, 0xff, 0x4c, 0x9d, 0xff, 0xff, 0x50, 0x9d, 0xff, 0xff,
  0x54, 0x9d, 0xff, 0xff, 0x58, 0x9d, 0xff, 0xff, 0x5c, 0x9d, 0xff, 0xff,
  0x60, 0x9d, 0xff, 0xff, 0x64, 0x9d, 0xff, 0xff, 0x68, 0x9d, 0xff, 0xff,
  0x6c, 0x9d, 0xff, 0xff, 0x70, 0x9d, 0xff, 0xff, 0x74, 0x9d, 0xff, 0xff,
  0x78, 0x9d, 0xff, 0xff, 0x7c, 0x9d, 0xff, 0xff, 0x52, 0xbd, 0xff, 0xff,
  0x04, 0x00, 0x00, 0x00, 0x10, 0x03, 0x00, 0x00, 0xe8, 0xcf, 0xef, 0xb8,
  0xb1, 0xb1, 0xbe, 0xfa, 0xce, 0xb2, 0xd0, 0xdc, 0xa9, 0x8c, 0x4c, 0x09,
  0xf2, 0x16, 0xfa, 0xf0, 0xd9, 0x4e, 0x28, 0x3e, 0x34, 0x2a, 0x07, 0xf7,
  0x38, 0x16, 0x1e, 0x41, 0x3a, 0x42, 0x7f, 0x06, 0xe3, 0xea, 0xfc, 0x1b,
  0x2f, 0x4f, 0xf2, 0xe9, 0x04, 0xd9, 0x00, 0x2c, 0x13, 0x06, 0xf7, 0xda,
  0x06, 0xf3, 0xf6, 0xf9, 0xd9, 0xf5, 0xfc, 0x00, 0xf9, 0xd4, 0xeb, 0xfd,
  0xfe, 0x18, 0x29, 0x00, 0xf9, 0x00, 0xd5, 0xd3, 0xe7, 0xe8, 0xd7, 0xd5,
  0xc9, 0x0e, 0x17, 0xfe, 0xbd, 0xe7, 0x0c, 0xef, 0x41, 0x7f, 0x42, 0x0b,
  0x26, 0x6c, 0x67, 0xd5, 0x34, 0xed, 0x0a, 0x00, 0x38, 0x13, 0xd1, 0x1b,
  0xed, 0xfe, 0x2a, 0x39, 0x2d, 0x02, 0x02, 0xd1, 0x04, 0x02, 0x2b, 0x11,
  0x47, 0x3d, 0xd8, 0xd2, 0xe3, 0xf0, 0x02, 0x5b, 0x7f, 0xf4, 0xe7, 0xe8,
  0xd5, 0xca, 0x47, 0x17, 0xec, 0xf9, 0xe3, 0xeb, 0xec, 0x25, 0xec, 0xb7,
  0x03, 0xf9, 0x04, 0xed, 0x0e, 0x06, 0xf7, 0x07, 0x07, 0xf7, 0xd3, 0x09,
  0xf2, 0x15, 0x14, 0x3d, 0x20, 0x14, 0xfb, 0xe9, 0xe2, 0xf9, 0x02, 0xe6,
  0x3e, 0xd4, 0xff, 0xee, 0xf4, 0xa7, 0x81, 0x44, 0x1b, 0x42, 0xff, 0x07,
  0xd0, 0x8b, 0x2e, 0x05, 0x17, 0xfb, 0x0e, 0xf5, 0x89, 0x10, 0x0c, 0x11,
  0x0f, 0x1a, 0x11, 0xb8, 0xf7, 0x15, 0x0b, 0xf6, 0x23, 0x1a, 0xf2, 0x02,
  0x73, 0x4d, 0x12, 0x19, 0x0e, 0xe3, 0xf2, 0x41, 0xf5, 0xf0, 0x00, 0xca,
  0xbf, 0x81, 0xdf, 0xee, 0x03, 0xdf, 0xe1, 0xfd, 0x04, 0xc6, 0xc0, 0xf7,
  0xdb, 0xf0, 0x36, 0x2d, 0xad, 0xea, 0xfc, 0xcc, 0x08, 0x3b, 0x3d, 0xee,
  0x02, 0xf6, 0x24, 0x45, 0x42, 0x20, 0xef, 0x28, 0x0d, 0x1e, 0x2e, 0xf7,
  0xd0, 0x7f, 0x3d, 0xe1, 0xf4, 0x0d, 0x08, 0xdf, 0x5f, 0x33, 0xe2, 0xdd,
  0xf5, 0xf6, 0xb4, 0x1f, 0x24, 0x1b, 0x3a, 0x13, 0xf5, 0xf9, 0x08, 0xef,
  0x60, 0x4f, 0xe9, 0xd3, 0xc8, 0x00, 0xd8, 0x16, 0xec, 0xd3, 0xb3, 0xaa,
  0xc5, 0xd1, 0xf6, 0xf2, 0x19, 0xfb, 0xb5, 0x9d, 0xe8, 0x1d, 0xfa, 0x3b,
  0x2b, 0x3e, 0xfe, 0x09, 0xe9, 0xd3, 0xed, 0x03, 0x54, 0x08, 0x0a, 0x06,
  0xe9, 0xd9, 0x3d, 0x62, 0x47, 0x0f, 0x24, 0xf7, 0x0c, 0x68, 0x5e, 0x27,
  0x0c, 0x0c, 0x16, 0x10, 0x3b, 0x10, 0xea, 0x02, 0xeb, 0x11, 0x02, 0xdd,
  0xad, 0xd0, 0xea, 0xd4, 0xe3, 0xff, 0x8f, 0x81, 0x19, 0x1d, 0xe4, 0x0c,
  0xf3, 0xcf, 0xd9, 0x07, 0x0b, 0x0a, 0xfd, 0xf8, 0x05, 0xfd, 0xbf, 0xb7,
  0xbd, 0xdd, 0xe4, 0x1a, 0xf6, 0xb5, 0xd3, 0xf0, 0x2f, 0x4c, 0x58, 0x28,
  0x03, 0x38, 0x5b, 0x7f, 0x4c, 0x4c, 0x4c, 0x26, 0x11, 0x18, 0x0c, 0xc7,
  0xb1, 0xd8, 0x07, 0xf3, 0xe9, 0xde, 0xce, 0x95, 0xd3, 0x0b, 0xf5, 0x15,
  0x12, 0xff, 0xf3, 0xda, 0x81, 0xdc, 0x4d, 0x25, 0xc7, 0xd1, 0xb0, 0xda,
  0xbe, 0xbf, 0xdb, 0xb0, 0xf1, 0x04, 0x1a, 0xf7, 0xf4, 0x24, 0xe7, 0xe3,
  0x1f, 0xf5, 0x22, 0x04, 0x01, 0xfa, 0x1d, 0x4a, 0xd8, 0xf2, 0xe8, 0xe3,
  0xff, 0x19, 0x45, 0xdf, 0x0d, 0xfb, 0xfc, 0xfd, 0xf9, 0x1c, 0x21, 0x30,
  0xf5, 0xf0, 0x0d, 0x15, 0x04, 0xf7, 0xfc, 0xeb, 0xe7, 0xee, 0x24, 0x1c,
  0x08, 0xc0, 0xc0, 0xe1, 0x37, 0x27, 0x31, 0x02, 0xa4, 0xbc, 0x0c, 0x47,
  0x21, 0x03, 0x26, 0x1b, 0x10, 0x18, 0xfe, 0xd4, 0xea, 0x3c, 0x7f, 0x78,
  0xfc, 0xb6, 0xb0, 0xce, 0x19, 0x28, 0x36, 0x04, 0xb8, 0xee, 0xd3, 0xe1,
  0xf6, 0xfa, 0x0b, 0xfa, 0x03, 0x1a, 0xeb, 0xff, 0xfd, 0x12, 0x3c, 0x04,
  0x0c, 0x30, 0x1d, 0x26, 0x1c, 0xe2, 0xe4, 0xd5, 0xc7, 0x84, 0x81, 0x93,
  0xcb, 0xc0, 0xb0, 0xe7, 0xc7, 0x11, 0x10, 0x23, 0x3c, 0x35, 0x05, 0x41,
  0x65, 0x50, 0x36, 0x3d, 0x64, 0xf6, 0x34, 0x1e, 0xe1, 0xef, 0xd1, 0xdc,
  0x21, 0x1a, 0x12, 0xc9, 0xe4, 0xff, 0xf1, 0x08, 0x1f, 0x02, 0x0e, 0xf0,
  0xfd, 0xdd, 0x02, 0x2c, 0x27, 0xdd, 0xe0, 0xe5, 0xb9, 0x12, 0x3a, 0x3c,
  0xee, 0xd3, 0xc6, 0xad, 0xfa, 0x16, 0x45, 0x68, 0x66, 0xfd, 0xd5, 0xa4,
  0x96, 0xd8, 0x48, 0x7f, 0x50, 0x31, 0xdc, 0xcd, 0x90, 0xd8, 0x08, 0x36,
  0x28, 0x0b, 0xf0, 0xee, 0xeb, 0xe5, 0x25, 0x07, 0xe7, 0xb0, 0xed, 0x2a,
  0x0f, 0x43, 0x32, 0xeb, 0x81, 0xc0, 0x00, 0x20, 0x75, 0x59, 0xd1, 0xc9,
  0xb7, 0xd5, 0x2b, 0x58, 0x59, 0xca, 0xe2, 0xcd, 0x08, 0x00, 0x1b, 0x6f,
  0xe6, 0x11, 0x1d, 0xea, 0xcc, 0x22, 0x30, 0xca, 0x15, 0x32, 0x0a, 0xe2,
  0x29, 0xe4, 0xc6, 0xeb, 0xe3, 0x17, 0x01, 0x4c, 0xea, 0x44, 0x3c, 0xe3,
  0xcd, 0xb7, 0xc6, 0xee, 0x7f, 0x4c, 0x13, 0xe4, 0xd0, 0xb5, 0xe7, 0x36,
  0x38, 0x3b, 0x2b, 0x3f, 0x2c, 0x29, 0xdc, 0xac, 0xd1, 0xfe, 0x3d, 0x69,
  0x47, 0xee, 0xc1, 0xd6, 0xd7, 0xf0, 0x0d, 0x27, 0xf6, 0xf0, 0x03, 0xfb,
  0x00, 0xf1, 0xff, 0xf2, 0xee, 0x0b, 0xea, 0xfe, 0x03, 0xd8, 0xf1, 0xe6,
  0xf0, 0xed, 0xc0, 0xe2, 0x2c, 0x04, 0xf6, 0x2c, 0xec, 0xd9, 0x13, 0x4d,
  0x0b, 0xc4, 0xd1, 0xac, 0x03, 0x4b, 0x52, 0xe1, 0x99, 0x81, 0xb6, 0x40,
  0x6c, 0x6c, 0x02, 0xf1, 0x09, 0xfb, 0x4f, 0x5f, 0x3a, 0x4b, 0x3b, 0x0d,
  0x51, 0x45, 0xc1, 0xbf, 0x3f, 0x15, 0xf4, 0x33, 0x09, 0xab, 0x9f, 0xe4,
  0xd5, 0xe8, 0x0b, 0xea, 0x1a, 0xda, 0xe0, 0xd1, 0xf4, 0x0f, 0x26, 0x1b,
  0xc3, 0xea, 0xdf, 0xfa, 0x1b, 0x05, 0xe2, 0xc7, 0x1a, 0x25, 0x0f, 0x08,
  0x0d, 0xe7, 0xf7, 0x25, 0x32, 0xfd, 0xfb, 0x19, 0xf3, 0xf5, 0x7f, 0x69,
  0x0a, 0x08, 0x1d, 0xe7, 0xe1, 0x50, 0x1a, 0x15, 0x05, 0x07, 0xdf, 0xcf,
  0x6e, 0xc0, 0xff, 0xff, 0x04, 0x00, 0x00, 0x00, 0x40, 0x00, 0x00, 0x00,
  0xcd, 0x04, 0x00, 0x00, 0xfc, 0x50, 0x00, 0x00, 0x95, 0x17, 0x00, 0x00,
  0x62, 0xbf, 0xff, 0xff, 0x59, 0xe9, 0xff, 0xff, 0xd2, 0xfd, 0xff, 0xff,
  0x03, 0x22, 0x00, 0x00, 0x69, 0x14, 0x00, 0x00, 0xa1, 0x91, 0xff, 0xff,
  0x63, 0xf9, 0xff, 0xff, 0xb6, 0xf3, 0xff, 0xff, 0x1f, 0xfb, 0xff, 0xff,
  0x57, 0x1a, 0x00, 0x00, 0xb3, 0x1f, 0x00, 0x00, 0x9c, 0x09, 0x00, 0x00,
  0x72, 0x25, 0x00, 0x00, 0xba, 0xc0, 0xff, 0xff, 0x04, 0x00, 0x00, 0x00,
  0x00, 0x09, 0x00, 0x00, 0xe3, 0xec, 0x28, 0x19, 0xfc, 0xcf, 0xfe, 0x01,
  0xa3, 0x9c, 0xe7, 0xfc, 0x08, 0x15, 0x26, 0xec, 0x10, 0x13, 0xd7, 0xdb,
  0x04, 0xc4, 0x11, 0x10, 0xfd, 0x3a, 0xf9, 0xe8, 0xf1, 0xdb, 0xe3, 0x0b,
  0x24, 0x15, 0x41, 0x02, 0xec, 0x08, 0x19, 0x1c, 0x16, 0x08, 0x28, 0xdf,
  0x37, 0xd8, 0xe7, 0x16, 0xdc, 0x02, 0xf0, 0xf4, 0xaf, 0xfd, 0x1c, 0xe7,
  0x05, 0x3d, 0xfb, 0xf3, 0xd2, 0xf2, 0x6d, 0xcd, 0x19, 0x0e, 0x10, 0x81,
  0x20, 0x00, 0xbb, 0x23, 0x10, 0x57, 0xfa, 0xfb, 0x04, 0xb0, 0xc0, 0x31,
  0x31, 0xd9, 0x4f, 0xd5, 0x41, 0xf4, 0x32, 0xd5, 0x03, 0xae, 0x11, 0x01,
  0xdd, 0x4d, 0x0e, 0xe1, 0xde, 0xf5, 0xd1, 0x03, 0x32, 0x0e, 0x04, 0x07,
  0x59, 0xf8, 0x1f, 0xeb, 0xcc, 0xd4, 0xf8, 0x19, 0xfc, 0xf1, 0xf2, 0xeb,
  0x12, 0xde, 0x1b, 0x07, 0x2d, 0xe9, 0x30, 0x00, 0x32, 0x28, 0xd8, 0xf2,
  0xf8, 0xf4, 0xec, 0xae, 0xf1, 0x33, 0xe8, 0xf2, 0xc3, 0xd8, 0xcf, 0xcf,
  0xdd, 0xf2, 0xe6, 0xc5, 0xdf, 0x0e, 0xfc, 0xce, 0x33, 0xb2, 0xe8, 0xde,
  0x0b, 0xfd, 0xfc, 0xd8, 0x39, 0x00, 0x28, 0x27, 0x30, 0x0e, 0xce, 0xed,
  0xf1, 0xb0, 0x03, 0x18, 0xf5, 0xe1, 0x05, 0x1a, 0x35, 0x1c, 0x1c, 0x10,
  0x03, 0xc5, 0x2a, 0x22, 0x09, 0x28, 0x1b, 0x18, 0x18, 0xde, 0x2c, 0xc2,
  0xca, 0xd4, 0x18, 0xc7, 0x22, 0x06, 0x51, 0x0f, 0xea, 0x0e, 0xf9, 0xde,
  0xfd, 0xd6, 0x04, 0x65, 0xc4, 0xe4, 0xc3, 0x0d, 0xe8, 0x2a, 0x1d, 0xe3,
  0x15, 0xf4, 0x1b, 0xea, 0xf4, 0x2f, 0xf4, 0xfb, 0xfa, 0xf2, 0xe8, 0xe4,
  0xe4, 0xfe, 0xd9, 0xdd, 0x11, 0xc1, 0x8d, 0xe7, 0xde, 0xea, 0xdc, 0xf0,
  0xee, 0xea, 0x02, 0x03, 0x09, 0x12, 0x81, 0x13, 0xc8, 0xf1, 0xf8, 0xeb,
  0x27, 0xfd, 0xd3, 0x1a, 0xe9, 0x43, 0x0e, 0x09, 0x0e, 0xfc, 0x1d, 0x32,
  0xea, 0x3d, 0xfd, 0xed, 0x25, 0x08, 0xd9, 0x50, 0x01, 0x32, 0xee, 0xe8,
  0x17, 0xed, 0x30, 0xbb, 0xe3, 0xd4, 0x17, 0xbf, 0xe1, 0x19, 0xfb, 0x13,
  0xd5, 0xd9, 0xe8, 0xf2, 0xb5, 0xd6, 0x3e, 0xfb, 0x32, 0x33, 0x29, 0xc9,
  0xb3, 0xdf, 0xca, 0x0a, 0xe3, 0x41, 0xe9, 0xcd, 0xf6, 0x15, 0xe7, 0x10,
  0x12, 0x16, 0xb6, 0x16, 0xe0, 0xf2, 0x0d, 0xed, 0xed, 0x03, 0xbf, 0xf3,
  0x16, 0x65, 0x06, 0xbf, 0x06, 0x08, 0xb6, 0x13, 0x0f, 0x12, 0x20, 0x6d,
  0xf8, 0x2e, 0xfc, 0x28, 0xd2, 0xc5, 0x04, 0xfc, 0x13, 0x08, 0x0b, 0xfb,
  0xf7, 0xee, 0xd2, 0x15, 0x18, 0x19, 0xde, 0x09, 0x0e, 0xf1, 0x01, 0xab,
  0x1f, 0xc9, 0x04, 0x00, 0x97, 0x17, 0xfb, 0x18, 0xe9, 0xff, 0xec, 0xf8,
  0x35, 0x4d, 0x2a, 0xea, 0xff, 0xdb, 0xdc, 0xf0, 0xe3, 0x0e, 0x0c, 0x19,
  0x01, 0x11, 0x08, 0x0b, 0x83, 0xcd, 0x0c, 0x0d, 0xfa, 0xf3, 0xf8, 0xf9,
  0x4e, 0xf2, 0xd2, 0xe4, 0x1b, 0xc6, 0x1c, 0xb8, 0x12, 0xf9, 0xf6, 0xc9,
  0xef, 0xee, 0x02, 0xe1, 0xe0, 0x05, 0xec, 0xff, 0xfe, 0x28, 0xdb, 0xf9,
  0x7f, 0x0a, 0x33, 0xe2, 0x10, 0xe8, 0x14, 0x2c, 0x24, 0x0d, 0x34, 0x3e,
  0x19, 0x30, 0xed, 0xf9, 0x0a, 0xc7, 0xdf, 0x1c, 0x04, 0x02, 0xb5, 0xbb,
  0x0d, 0x17, 0xf7, 0xdd, 0x8e, 0x1b, 0xd3, 0xd3, 0x00, 0x0a, 0xd3, 0xf9,
  0xc6, 0xb6, 0xed, 0x11, 0xf2, 0x28, 0x08, 0x2d, 0xc3, 0xf1, 0xe5, 0x01,
  0xfd, 0x25, 0xbb, 0x04, 0x0b, 0x2a, 0xed, 0xb0, 0xe1, 0xbe, 0xdf, 0xf6,
  0xca, 0xf4, 0x13, 0xeb, 0x05, 0xe1, 0x0e, 0xe8, 0xc2, 0x38, 0xf3, 0xbd,
  0xd8, 0xdd, 0xbb, 0x0d, 0x2d, 0x04, 0xe9, 0xdf, 0x2e, 0x09, 0xd6, 0xef,
  0xe0, 0xbc, 0x1f, 0x15, 0xdf, 0xe7, 0xec, 0x27, 0x2f, 0x1c, 0x0d, 0x3e,
  0x0a, 0x1a, 0xf2, 0xc3, 0x21, 0x1f, 0x7f, 0x41, 0xf0, 0x01, 0x1a, 0x14,
  0x2b, 0x04, 0x1b, 0x18, 0xfb, 0x06, 0xe0, 0xfa, 0xcb, 0x0e, 0xc1, 0xc1,
  0xc2, 0xae, 0xd8, 0xe9, 0x0a, 0xef, 0xc2, 0x21, 0x21, 0x47, 0x2e, 0xfd,
  0x56, 0x0f, 0x0d, 0xe0, 0x0e, 0x00, 0x14, 0x13, 0x0c, 0x22, 0x28, 0x2e,
  0x13, 0x12, 0x06, 0xe7, 0x22, 0x38, 0x45, 0x68, 0xa8, 0x1c, 0x4c, 0x34,
  0xf8, 0xf8, 0xfa, 0x2f, 0xc9, 0xea, 0x35, 0x01, 0x0a, 0x12, 0xe5, 0x0e,
  0xc4, 0x07, 0x9a, 0xfd, 0x29, 0xeb, 0xc3, 0xd9, 0xca, 0x03, 0xfa, 0x1c,
  0xfa, 0x31, 0x16, 0xd2, 0xd3, 0x36, 0x03, 0x0a, 0x0f, 0x27, 0x04, 0x08,
  0x96, 0x03, 0x10, 0xe4, 0x52, 0x0b, 0xe7, 0xff, 0xe7, 0x42, 0xd5, 0xec,
  0xf8, 0xea, 0xdf, 0xfe, 0xfd, 0xee, 0xf7, 0xf4, 0xc6, 0x07, 0xda, 0x27,
  0xe4, 0xda, 0xfe, 0xda, 0x13, 0xdb, 0xe5, 0x0f, 0xe9, 0x00, 0xf4, 0x37,
  0x19, 0xd8, 0x1c, 0x20, 0xe3, 0xfb, 0x0c, 0x07, 0x0c, 0xe3, 0x13, 0x05,
  0x09, 0x21, 0x04, 0x16, 0xc8, 0xcf, 0xe2, 0x04, 0x0d, 0xd4, 0x02, 0x16,
  0xeb, 0x32, 0x0d, 0x56, 0xbd, 0xfd, 0x18, 0xe6, 0xea, 0xee, 0xfa, 0xdb,
  0x15, 0xed, 0xc6, 0x17, 0xff, 0xf9, 0xd8, 0xfc, 0xc1, 0xf8, 0x1a, 0xec,
  0x18, 0xd1, 0x17, 0xfb, 0xff, 0x12, 0xc6, 0x21, 0xfd, 0x3a, 0x16, 0xf5,
  0x81, 0xf2, 0x08, 0x2f, 0xe7, 0x33, 0xc8, 0xeb, 0xf5, 0xe8, 0xd0, 0x30,
  0xd8, 0xe4, 0x3a, 0xed, 0x01, 0x0e, 0x27, 0x15, 0xcb, 0xda, 0xc6, 0xc6,
  0xf0, 0x19, 0x07, 0x1d, 0x1e, 0xef, 0xf6, 0x0f, 0x05, 0x43, 0x0e, 0xc5,
  0xfd, 0x1b, 0xd3, 0xd3, 0xdf, 0x2c, 0xcc, 0x26, 0xf5, 0xe3, 0x12, 0x0d,
  0xd4, 0x42, 0x03, 0x07, 0xf6, 0xe1, 0xc5, 0xe8, 0x0c, 0x17, 0xfb, 0xe9,
  0xc3, 0xd2, 0x28, 0xf0, 0xdf, 0x81, 0x23, 0x09, 0xcd, 0xfe, 0xf4, 0x0a,
  0x25, 0x02, 0xca, 0x0a, 0x12, 0x31, 0xcf, 0x11, 0xfa, 0xe2, 0x25, 0xd2,
  0xfa, 0x06, 0x16, 0x49, 0xfb, 0x14, 0x41, 0xe3, 0x03, 0x33, 0x1a, 0x29,
  0x3b, 0xe5, 0xf6, 0xdc, 0x01, 0x0a, 0x24, 0x29, 0xe7, 0xfb, 0x52, 0xe3,
  0x03, 0x2f, 0x1d, 0x1e, 0xb7, 0xe8, 0x02, 0xb7, 0x15, 0x01, 0x0a, 0xc2,
  0x05, 0x00, 0x1b, 0xd2, 0x03, 0xe5, 0xeb, 0xec, 0xf4, 0x01, 0xe0, 0xd1,
  0x00, 0x0b, 0xf9, 0x0c, 0xc9, 0xfc, 0x36, 0xf8, 0x07, 0xee, 0xec, 0xac,
  0x21, 0xfe, 0x0a, 0xfe, 0x08, 0x0f, 0x05, 0x03, 0x56, 0x18, 0x11, 0xef,
  0x08, 0xe8, 0xfb, 0xd3, 0xe4, 0x18, 0x1f, 0xdf, 0xea, 0x0a, 0x44, 0x23,
  0x08, 0x22, 0x27, 0x2b, 0xeb, 0xf4, 0xf4, 0xdd, 0x14, 0x1a, 0xdc, 0x90,
  0xe9, 0x22, 0xd6, 0x0c, 0xe9, 0x02, 0xf3, 0x20, 0xa9, 0x08, 0x0f, 0xff,
  0x18, 0x11, 0x0f, 0xfe, 0x06, 0x04, 0xf5, 0xbd, 0xf4, 0x09, 0xe6, 0x0c,
  0xd8, 0xe3, 0x02, 0xc8, 0xf6, 0xca, 0x17, 0x24, 0x1d, 0x1b, 0x20, 0x22,
  0xf6, 0x00, 0x51, 0x2f, 0xf4, 0x1f, 0xc3, 0xd7, 0x1e, 0x28, 0xdd, 0xd5,
  0xf2, 0xde, 0x12, 0x15, 0xd1, 0xf5, 0x16, 0x40, 0xfc, 0x23, 0xcc, 0xde,
  0xe1, 0x0c, 0x09, 0x2b, 0xd3, 0xda, 0xeb, 0xd9, 0xec, 0x4b, 0xd5, 0xf3,
  0xf2, 0x00, 0xe5, 0xe6, 0xc6, 0xa1, 0x38, 0xf8, 0xe5, 0xa0, 0x02, 0xe5,
  0x41, 0xf2, 0xec, 0x11, 0x01, 0xf0, 0xe1, 0xfd, 0x23, 0x05, 0x1f, 0xd9,
  0x0f, 0x0c, 0x02, 0x8a, 0x03, 0xf1, 0x5a, 0x19, 0x39, 0x4f, 0xc7, 0x24,
  0xb5, 0xde, 0xb4, 0x61, 0xe0, 0xdf, 0x81, 0x16, 0x1e, 0xb9, 0xcc, 0x18,
  0xfa, 0xde, 0x2c, 0xd0, 0x1d, 0xa6, 0xf3, 0xbe, 0x47, 0xd5, 0xf9, 0xe6,
  0xeb, 0x05, 0xc9, 0xe2, 0x2a, 0xf1, 0x13, 0x06, 0x02, 0xed, 0x20, 0xf1,
  0x32, 0xfb, 0x36, 0x24, 0xe3, 0xf7, 0x19, 0x03, 0x2b, 0x02, 0x21, 0x0b,
  0x0c, 0xd1, 0x27, 0x00, 0x1c, 0x41, 0x0e, 0x34, 0xe1, 0x0a, 0x01, 0x29,
  0x5e, 0x1d, 0xd9, 0x17, 0xfb, 0x00, 0xb9, 0xfd, 0x1a, 0xff, 0xf2, 0xf4,
  0x0d, 0xc0, 0xfd, 0xf4, 0x27, 0xe8, 0x0a, 0xe0, 0x0f, 0xe9, 0xe9, 0x05,
  0x06, 0xed, 0x08, 0x02, 0x19, 0x1b, 0xfa, 0x14, 0xe4, 0x21, 0x2e, 0xe7,
  0xff, 0xe1, 0x03, 0xd6, 0xde, 0xe7, 0x29, 0xe8, 0x25, 0xe7, 0x2e, 0x1e,
  0x02, 0x7f, 0xf0, 0xcc, 0x28, 0x36, 0x2d, 0xf0, 0xfb, 0xd6, 0xdd, 0x1d,
  0xa5, 0xec, 0x45, 0x1f, 0xa2, 0xf7, 0x00, 0x3b, 0xd8, 0x01, 0x0a, 0x04,
  0xea, 0x05, 0xe5, 0x0d, 0xf7, 0x18, 0xf5, 0x54, 0xbe, 0xbc, 0xef, 0x37,
  0xa8, 0xde, 0x21, 0x05, 0xfe, 0xb0, 0xf9, 0xee, 0xc1, 0x39, 0x05, 0x00,
  0xf2, 0xca, 0xbb, 0x0e, 0x06, 0xf0, 0xc7, 0xff, 0xef, 0xcd, 0x1d, 0x2b,
  0xf4, 0x5d, 0x12, 0xbb, 0xb2, 0xa8, 0x19, 0xf7, 0x16, 0xf9, 0xce, 0x0a,
  0x0c, 0xea, 0xd7, 0x29, 0xc4, 0xec, 0xfe, 0x47, 0xc3, 0x0e, 0x35, 0xe2,
  0x07, 0x15, 0xf5, 0xe0, 0xdd, 0xca, 0xdd, 0x0e, 0xd0, 0x21, 0x1b, 0x28,
  0x81, 0xf2, 0xcd, 0x27, 0x2a, 0x1a, 0x19, 0xd2, 0xf7, 0x2e, 0x14, 0xfd,
  0xff, 0x01, 0x38, 0xf7, 0xe5, 0xdf, 0xde, 0x17, 0x07, 0xe2, 0x04, 0xf0,
  0x1a, 0xb6, 0xd3, 0x14, 0xc5, 0x15, 0x14, 0x00, 0x20, 0x0d, 0xf6, 0x04,
  0xe2, 0x5c, 0x08, 0xe6, 0x15, 0xd9, 0xc1, 0x1d, 0x10, 0x0f, 0xe8, 0x2d,
  0xd3, 0xff, 0xee, 0x48, 0x07, 0xfe, 0x07, 0x03, 0xee, 0xf5, 0xf5, 0xe3,
  0x1b, 0xe2, 0x14, 0xf5, 0x1f, 0xe7, 0xd9, 0x12, 0xe6, 0x09, 0x29, 0x06,
  0xf2, 0xfe, 0xf9, 0xfa, 0xe5, 0xe4, 0xfb, 0xfb, 0x11, 0x1a, 0xd6, 0xf5,
  0xf8, 0x19, 0xec, 0x2f, 0xe8, 0x27, 0xf3, 0xea, 0x09, 0xef, 0xe4, 0x4e,
  0x3b, 0x15, 0xcb, 0x21, 0xda, 0x46, 0x29, 0xa2, 0xd9, 0x06, 0xc9, 0xeb,
  0xe0, 0xaf, 0xb8, 0x3a, 0x17, 0xf9, 0x1c, 0xde, 0xd9, 0x23, 0xd1, 0x0e,
  0x01, 0x09, 0x15, 0xfc, 0x36, 0x13, 0x4f, 0x25, 0x01, 0x2f, 0x1d, 0xde,
  0xfc, 0xc4, 0x0f, 0x9b, 0x34, 0xd3, 0xfe, 0x7f, 0xd7, 0x05, 0x56, 0xea,
  0xed, 0xf1, 0xec, 0x26, 0x13, 0x40, 0xff, 0x2a, 0x0a, 0xc8, 0xff, 0xff,
  0xd4, 0x04, 0xe0, 0xf3, 0x0b, 0x2e, 0x08, 0x02, 0x07, 0xfa, 0x21, 0x1d,
  0x4a, 0x06, 0xe3, 0x12, 0x20, 0xba, 0x0a, 0xed, 0xfd, 0xd3, 0xff, 0x23,
  0xde, 0xa0, 0x19, 0xd5, 0x18, 0x22, 0xe5, 0x39, 0x0a, 0x33, 0x2d, 0xcc,
  0xdd, 0xed, 0x06, 0xeb, 0x13, 0x36, 0x36, 0x04, 0xf2, 0x13, 0xed, 0x15,
  0xbc, 0xfa, 0xc7, 0x18, 0xe9, 0x03, 0x06, 0xe0, 0xf3, 0xce, 0xfb, 0x10,
  0x0a, 0x03, 0x11, 0x04, 0xe5, 0xf7, 0xf9, 0x04, 0x0f, 0x39, 0x04, 0xfc,
  0xee, 0x02, 0x44, 0xdd, 0x27, 0x4a, 0xfd, 0xe5, 0x09, 0x7b, 0x0f, 0xf7,
  0xe7, 0xc5, 0xd5, 0x16, 0xc9, 0xf2, 0xe6, 0xe6, 0xf0, 0xfd, 0xa1, 0xd6,
  0x11, 0xab, 0x15, 0xd4, 0x2d, 0xeb, 0xe9, 0xde, 0xf0, 0x15, 0xe1, 0xf6,
  0xd5, 0xdd, 0xe5, 0xe9, 0xeb, 0xe2, 0x15, 0xd3, 0xf9, 0xfb, 0xdb, 0xf5,
  0x32, 0x39, 0xab, 0x2f, 0x33, 0xc8, 0x0f, 0x32, 0x24, 0xe8, 0x15, 0x31,
  0x17, 0x19, 0x39, 0xf8, 0xff, 0x10, 0xb3, 0xf5, 0x11, 0xaf, 0xf0, 0xbb,
  0x0c, 0x02, 0xea, 0xf1, 0xf8, 0xb0, 0x02, 0x27, 0x1d, 0xe5, 0xda, 0xf4,
  0x00, 0x8d, 0xf3, 0x26, 0xb0, 0xef, 0x09, 0x1c, 0xed, 0xf9, 0x38, 0xf1,
  0x35, 0xc3, 0x0d, 0xd8, 0x43, 0x11, 0x62, 0x42, 0xfc, 0x34, 0xdc, 0xe9,
  0x21, 0x27, 0x0e, 0x04, 0x1f, 0x2b, 0x4a, 0x0b, 0xbc, 0x07, 0xde, 0xe9,
  0xe0, 0x12, 0xfa, 0xd1, 0x12, 0xfd, 0xfd, 0x5a, 0xeb, 0x17, 0x1f, 0xf0,
  0x02, 0x03, 0xfd, 0x14, 0xdc, 0x19, 0x06, 0xd4, 0x07, 0xf1, 0x0c, 0x06,
  0xc4, 0xd9, 0x25, 0x1f, 0x81, 0xe9, 0x32, 0x21, 0xb4, 0x2d, 0xb8, 0x27,
  0x0a, 0xf4, 0x13, 0xfb, 0x22, 0x1e, 0xe4, 0xe8, 0xce, 0xb8, 0xea, 0x1a,
  0x12, 0xb9, 0x13, 0x09, 0xe0, 0x22, 0xff, 0xec, 0xe1, 0xbe, 0xfd, 0x5d,
  0xec, 0xb2, 0xc8, 0xc6, 0xf6, 0x30, 0xf4, 0x28, 0xf2, 0x1d, 0xe4, 0xfd,
  0x1f, 0xfe, 0xe9, 0xd1, 0xe2, 0xe4, 0x9d, 0xb8, 0x66, 0xcc, 0xbc, 0x00,
  0xcf, 0x42, 0xc7, 0x3b, 0x07, 0x2e, 0x4c, 0x32, 0xc8, 0x10, 0x39, 0x34,
  0xd8, 0xc5, 0x16, 0xb2, 0x6c, 0xb7, 0x48, 0x42, 0x1a, 0xd9, 0xf7, 0x24,
  0xe0, 0x3c, 0xd2, 0xab, 0xdb, 0xe6, 0xba, 0x4b, 0x0c, 0xef, 0x1c, 0x10,
  0x3b, 0x1a, 0x1d, 0x28, 0xaa, 0xf8, 0xd2, 0xd8, 0x03, 0x24, 0x98, 0x33,
  0xc3, 0x3d, 0xe4, 0x11, 0x36, 0x3d, 0x0a, 0xbd, 0xd4, 0x03, 0x43, 0x33,
  0xc0, 0x2f, 0x2b, 0xd7, 0xa7, 0xe9, 0x05, 0x53, 0x18, 0x2a, 0x81, 0xc1,
  0xb8, 0x0e, 0xef, 0xc6, 0xdb, 0x26, 0xf7, 0x2b, 0xce, 0x34, 0xff, 0x3a,
  0x20, 0x1f, 0xfc, 0x09, 0xcb, 0x37, 0xf3, 0x35, 0x17, 0x38, 0xa9, 0x47,
  0xd4, 0xd7, 0xcb, 0xfa, 0xee, 0xb1, 0xfe, 0xe3, 0x4b, 0x2d, 0x00, 0xb0,
  0xf8, 0xd4, 0x16, 0xf6, 0x15, 0xf2, 0xc9, 0x13, 0x02, 0x20, 0x21, 0xd4,
  0x06, 0xfe, 0xf7, 0x48, 0xe6, 0x0f, 0xda, 0x01, 0x1e, 0xf6, 0x2c, 0x20,
  0xb8, 0xfc, 0x15, 0xe2, 0xda, 0x3d, 0x06, 0xfd, 0x0a, 0xfc, 0xce, 0x06,
  0x02, 0xf9, 0xde, 0x05, 0xf3, 0xe2, 0xd6, 0xe2, 0x1f, 0xef, 0x01, 0x04,
  0xf8, 0x04, 0x19, 0xee, 0xe0, 0x04, 0x08, 0x11, 0xd1, 0x2b, 0xf2, 0xb0,
  0x2e, 0xf9, 0x04, 0x41, 0xc3, 0x0a, 0xf7, 0x05, 0xf9, 0xe6, 0x3a, 0x22,
  0x97, 0x1d, 0xd2, 0x19, 0xec, 0x9f, 0xfd, 0x0d, 0x26, 0xef, 0x07, 0xd5,
  0xf0, 0xea, 0x3c, 0x2d, 0xeb, 0x06, 0xf7, 0x0b, 0x0e, 0xff, 0xfe, 0xeb,
  0xde, 0x20, 0x3a, 0xd8, 0xc8, 0xc4, 0x32, 0xf1, 0xb2, 0x01, 0xfb, 0x06,
  0x10, 0xb5, 0x37, 0x39, 0xde, 0xea, 0x1b, 0xbf, 0x07, 0xf3, 0x24, 0xff,
  0x81, 0xfd, 0xf8, 0x52, 0x10, 0x44, 0x19, 0xe4, 0x43, 0x03, 0xda, 0xf0,
  0x3c, 0xe4, 0xf0, 0xe9, 0xd3, 0x56, 0xe7, 0xd4, 0x12, 0x1a, 0x16, 0x0b,
  0x89, 0x11, 0x14, 0x2b, 0x00, 0xfa, 0xd8, 0x2f, 0x0e, 0x12, 0xfc, 0xe4,
  0xc2, 0xf8, 0x1f, 0x1f, 0xcb, 0x3b, 0x05, 0xd8, 0x2c, 0xeb, 0x04, 0xf4,
  0x28, 0x23, 0x09, 0x23, 0x6d, 0x04, 0x28, 0x4a, 0xf7, 0x93, 0x2c, 0x32,
  0x0f, 0x1f, 0x22, 0xdc, 0x23, 0x09, 0xe1, 0x40, 0x17, 0xe5, 0xd5, 0x07,
  0xca, 0xd9, 0xc8, 0xd7, 0x07, 0x0e, 0xe2, 0xee, 0x12, 0xea, 0xff, 0x2d,
  0x3f, 0xff, 0xea, 0x19, 0x40, 0xf4, 0x24, 0xd7, 0xf3, 0xe0, 0xe3, 0xef,
  0xef, 0xeb, 0x16, 0x3b, 0xdf, 0xf5, 0xf1, 0x1e, 0x02, 0xdf, 0x42, 0x14,
  0x0f, 0x47, 0x09, 0xdd, 0xfc, 0x02, 0x0a, 0x22, 0x00, 0x0e, 0x41, 0xfa,
  0x60, 0xcb, 0x04, 0xdc, 0xf7, 0xe8, 0x1c, 0x4a, 0x19, 0xe4, 0xff, 0x1d,
  0x57, 0x02, 0xfc, 0xc8, 0x11, 0x1e, 0x81, 0x0e, 0xf7, 0x0e, 0xfb, 0xfc,
  0xe8, 0x23, 0x0a, 0xf7, 0xd7, 0xfb, 0x31, 0xe2, 0x04, 0xdf, 0xdc, 0xf8,
  0x0d, 0xda, 0x13, 0xdd, 0xcb, 0xfb, 0x23, 0xc8, 0xfc, 0x59, 0x62, 0xe9,
  0xe9, 0x03, 0xf9, 0xe7, 0x46, 0x37, 0x05, 0x1a, 0x03, 0x00, 0x05, 0x06,
  0xe8, 0xbf, 0x03, 0xe8, 0x0b, 0xda, 0xe0, 0xe2, 0x37, 0x12, 0x1d, 0x4e,
  0xf6, 0xfc, 0x13, 0xe2, 0x28, 0x62, 0xf2, 0x08, 0x39, 0x20, 0xe2, 0x39,
  0x1a, 0x03, 0xfe, 0x44, 0xee, 0xf1, 0xdb, 0x0d, 0xfc, 0xfa, 0xfc, 0xd8,
  0x50, 0xe7, 0x13, 0x0a, 0xf1, 0x31, 0x07, 0xfe, 0x3b, 0x0a, 0x19, 0x15,
  0x12, 0xe4, 0x20, 0xe9, 0x1d, 0x13, 0xde, 0xfd, 0xd9, 0x15, 0x1a, 0x14,
  0xf7, 0x0b, 0x0d, 0x0b, 0xdf, 0x26, 0x17, 0x24, 0xb9, 0x01, 0xf1, 0x0b,
  0x20, 0x0b, 0x19, 0xfa, 0xeb, 0x9a, 0xda, 0xa8, 0x0d, 0xe6, 0xf2, 0xee,
  0x05, 0xe6, 0xfe, 0xf0, 0xe8, 0xef, 0x0e, 0xce, 0x0d, 0xf0, 0x13, 0xf6,
  0x0b, 0xe8, 0x0f, 0x16, 0x89, 0x26, 0x24, 0xd7, 0xce, 0x0b, 0x04, 0xbf,
  0x21, 0x19, 0x03, 0xe5, 0x21, 0x26, 0x01, 0x2f, 0xba, 0xf8, 0x2c, 0xf3,
  0xcc, 0xc4, 0xd5, 0x81, 0x59, 0x4b, 0xee, 0xf9, 0x0a, 0xa1, 0x26, 0x43,
  0x04, 0x07, 0x17, 0x06, 0xeb, 0xdb, 0x2e, 0x2c, 0xec, 0xd8, 0x04, 0x05,
  0xe1, 0xe6, 0xd9, 0xf7, 0xbd, 0x2c, 0xd0, 0x31, 0xf0, 0x37, 0x0a, 0xf7,
  0xbb, 0xc5, 0x11, 0xfc, 0xe9, 0xac, 0x81, 0xd7, 0xbd, 0x03, 0xde, 0xd9,
  0xf6, 0xf0, 0xce, 0x3f, 0x12, 0x1c, 0x36, 0x0f, 0x12, 0xe9, 0x07, 0xe9,
  0x31, 0x11, 0x18, 0x0c, 0x0c, 0x16, 0x08, 0x19, 0x2e, 0x12, 0xeb, 0x2f,
  0x0d, 0x1b, 0x21, 0x2a, 0xf0, 0xd1, 0xe1, 0x23, 0xf3, 0x0d, 0xf8, 0x5e,
  0x04, 0xd1, 0x1a, 0xc5, 0x28, 0x0f, 0x13, 0xcf, 0xe1, 0x37, 0xea, 0xc4,
  0xf9, 0xde, 0x06, 0x35, 0xf1, 0xde, 0x08, 0x1a, 0xcc, 0x53, 0x1d, 0xfc,
  0x53, 0xa8, 0xc4, 0x0b, 0xe4, 0x43, 0xcc, 0x9f, 0x30, 0x1b, 0xf1, 0x44,
  0xf3, 0xf8, 0x01, 0xfe, 0x00, 0x0b, 0xf0, 0xf6, 0x27, 0xcd, 0x1d, 0xfd,
  0x21, 0xe9, 0x38, 0xb4, 0x0f, 0xeb, 0xdd, 0xd9, 0xa9, 0x2a, 0x08, 0xeb,
  0x03, 0x10, 0xe3, 0xed, 0xc6, 0xc9, 0xff, 0xff, 0x04, 0x00, 0x00, 0x00,
  0x40, 0x00, 0x00, 0x00, 0x66, 0xff, 0xff, 0xff, 0x75, 0xff, 0xff, 0xff,
  0x39, 0x01, 0x00, 0x00, 0xd6, 0xf5, 0xff, 0xff, 0xd2, 0x1e, 0x00, 0x00,
  0x4a, 0x09, 0x00, 0x00, 0xf2, 0x13, 0x00, 0x00, 0x72, 0xfe, 0xff, 0xff,
  0xef, 0xff, 0xff, 0xff, 0xf7, 0xf7, 0xff, 0xff, 0xd0, 0x12, 0x00, 0x00,
  0xb4, 0xfc, 0xff, 0xff, 0xfd, 0x10, 0x00, 0x00, 0xed, 0xe4, 0xff, 0xff,
  0x9c, 0x02, 0x00, 0x00, 0xf1, 0xfb, 0xff, 0xff, 0x12, 0xca, 0xff, 0xff,
  0x04, 0x00, 0x00, 0x00, 0x00, 0x09, 0x00, 0x00, 0xe8, 0xcb, 0xb8, 0xe3,
  0xf9, 0x06, 0xd7, 0x02, 0xe4, 0xd5, 0x06, 0xea, 0x13, 0x0f, 0x1f, 0x14,
  0xe1, 0x05, 0x0d, 0xe1, 0x14, 0x18, 0xff, 0x14, 0x10, 0xb5, 0xe8, 0x3d,
  0x1a, 0xea, 0xfc, 0x01, 0xa9, 0x1b, 0x36, 0x1c, 0x58, 0x23, 0x19, 0x5a,
  0xac, 0xbf, 0xf8, 0xff, 0xb4, 0xb6, 0xe7, 0xe6, 0x18, 0x12, 0xfa, 0x02,
  0x1f, 0x35, 0xca, 0x25, 0xda, 0x14, 0x59, 0xff, 0xed, 0xd1, 0x35, 0x08,
  0x11, 0x39, 0xe9, 0x10, 0x81, 0x00, 0x0b, 0x1b, 0xf4, 0xe0, 0x0c, 0xd8,
  0xd8, 0x00, 0x25, 0xfa, 0x02, 0x9e, 0x26, 0x08, 0x22, 0x07, 0x01, 0x0d,
  0xfb, 0x0b, 0xb5, 0xfe, 0x0d, 0xe7, 0x01, 0xbd, 0x18, 0x0f, 0x1a, 0x0a,
  0xe4, 0x1f, 0x16, 0xff, 0x48, 0x12, 0x3e, 0xc2, 0xd7, 0xad, 0x0c, 0x03,
  0xf4, 0xfa, 0x1a, 0x1a, 0xc6, 0xe9, 0x13, 0xbf, 0x11, 0x47, 0x0f, 0xb5,
  0xd4, 0xe9, 0x01, 0xfe, 0x0d, 0xfd, 0xf6, 0xa8, 0xe3, 0x02, 0x03, 0x0a,
  0x1e, 0xf2, 0x28, 0xfb, 0x20, 0x06, 0x15, 0xe0, 0x31, 0x16, 0xd9, 0xf1,
  0x56, 0xe8, 0x03, 0x0e, 0xcd, 0x0f, 0xd3, 0x19, 0x7b, 0xec, 0x25, 0xc4,
  0xec, 0x1d, 0x1c, 0xbf, 0x12, 0x0a, 0xf6, 0x10, 0x16, 0x50, 0xee, 0xb6,
  0xb6, 0xed, 0xfe, 0x4c, 0x18, 0xdc, 0xfa, 0xaa, 0xf6, 0x67, 0xa0, 0x4a,
  0xe1, 0xd1, 0xd0, 0x0b, 0x52, 0x13, 0xd1, 0x13, 0xfb, 0xe7, 0xd4, 0xe7,
  0x1d, 0x07, 0x8e, 0x42, 0xb4, 0xef, 0xb4, 0x41, 0xe3, 0xeb, 0xee, 0xf1,
  0x20, 0xd1, 0x2c, 0x8d, 0xda, 0x5d, 0x07, 0xfc, 0xe4, 0x0b, 0x08, 0xc2,
  0x09, 0xca, 0xf4, 0x0a, 0x3e, 0x0b, 0xee, 0xd2, 0xdb, 0x60, 0x0f, 0x48,
  0xff, 0x39, 0x03, 0xe4, 0xd1, 0x2d, 0x71, 0x4a, 0x0e, 0x76, 0x4b, 0xb4,
  0x1d, 0x49, 0xc8, 0x31, 0xb1, 0x14, 0x1a, 0xdf, 0x15, 0x0e, 0xc7, 0xc5,
  0xff, 0x05, 0x2e, 0x2f, 0xdc, 0xdf, 0xa5, 0x31, 0xfc, 0xff, 0xeb, 0xfd,
  0xca, 0x05, 0x1e, 0x03, 0x1c, 0xf7, 0x2b, 0x8e, 0x88, 0x7f, 0x0b, 0xff,
  0x2f, 0x3f, 0xe3, 0xd0, 0xbe, 0xe8, 0xf7, 0xf2, 0xdf, 0x04, 0x1b, 0x35,
  0x9b, 0xe4, 0xe9, 0x89, 0xe4, 0x29, 0xe0, 0xbd, 0xf5, 0x35, 0xc0, 0xde,
  0x06, 0xfd, 0x27, 0x02, 0x3d, 0x3a, 0xcd, 0x2d, 0x39, 0xe2, 0x0e, 0xd6,
  0x39, 0x04, 0xfc, 0xfd, 0xab, 0xab, 0xf7, 0xfc, 0x1a, 0xda, 0xe9, 0x33,
  0x24, 0x0a, 0x01, 0x45, 0x56, 0x81, 0x27, 0x34, 0xe7, 0x08, 0xd2, 0x12,
  0xa2, 0xf1, 0x01, 0x26, 0xf5, 0x2f, 0x16, 0xe5, 0xe8, 0x21, 0xd0, 0xc7,
  0xf1, 0xad, 0x1f, 0x02, 0x28, 0x2b, 0x3a, 0x10, 0x38, 0x00, 0xd9, 0xb3,
  0xcd, 0x10, 0x0f, 0xc5, 0xbc, 0xac, 0x2f, 0xb8, 0xc3, 0xf2, 0xd8, 0xc7,
  0x01, 0x08, 0x0b, 0x65, 0xcf, 0xa7, 0x6e, 0x4e, 0xfa, 0xa1, 0xad, 0xf4,
  0x28, 0x31, 0xaa, 0x08, 0x08, 0x1c, 0x03, 0x58, 0xf6, 0xed, 0xc8, 0x97,
  0xc8, 0xce, 0xff, 0x0b, 0xd1, 0x16, 0x09, 0xdb, 0x55, 0x13, 0xff, 0x00,
  0xe3, 0xf0, 0xef, 0x1a, 0xd3, 0x10, 0xed, 0x0f, 0x15, 0xcf, 0x3d, 0xfe,
  0xcd, 0x17, 0xfe, 0x0c, 0xf1, 0xe1, 0x7f, 0x27, 0xd6, 0x00, 0xef, 0xe9,
  0xe9, 0xd9, 0x81, 0x02, 0x06, 0x26, 0x14, 0xeb, 0x15, 0xe6, 0x20, 0xe5,
  0xd2, 0xfc, 0x33, 0xd7, 0x50, 0xed, 0x1e, 0xfe, 0xed, 0x13, 0xf2, 0x0a,
  0xe2, 0x05, 0xb9, 0x10, 0x00, 0x3d, 0xf0, 0xcc, 0xf4, 0x1b, 0x31, 0xf9,
  0x26, 0x06, 0x22, 0x4c, 0x3c, 0xf3, 0xfb, 0x18, 0x23, 0x0b, 0xce, 0x88,
  0xc2, 0xc3, 0x08, 0x28, 0x00, 0xea, 0xeb, 0x04, 0x32, 0xcf, 0xf1, 0xe4,
  0xf4, 0xf3, 0x3f, 0x15, 0x10, 0x0d, 0x0f, 0x3b, 0xf6, 0x0c, 0x23, 0x20,
  0x1f, 0xc3, 0xf8, 0x16, 0xf6, 0x45, 0x2f, 0xc9, 0x2b, 0x1e, 0xe9, 0xf0,
  0x06, 0x19, 0xfa, 0xe7, 0x46, 0x34, 0x0f, 0xf6, 0x17, 0x03, 0xd4, 0xa6,
  0xd0, 0xd3, 0xed, 0xec, 0xd5, 0xf6, 0xa8, 0x42, 0x1e, 0xf4, 0xe8, 0xd6,
  0x2a, 0x03, 0xf3, 0x08, 0x17, 0x16, 0x17, 0x48, 0xe0, 0xce, 0xf3, 0x45,
  0x41, 0x14, 0x01, 0xf0, 0x0c, 0x47, 0x62, 0x04, 0x12, 0x40, 0x1b, 0x24,
  0x12, 0x1f, 0xee, 0x15, 0xc4, 0x28, 0x30, 0xda, 0x0f, 0xf1, 0x25, 0xf0,
  0xf2, 0xb3, 0xe1, 0xc1, 0x90, 0x39, 0xf8, 0x13, 0x25, 0x00, 0x25, 0x96,
  0x14, 0xb0, 0xce, 0xf2, 0x5d, 0xdc, 0x8c, 0x81, 0xf8, 0xf8, 0xc5, 0xc6,
  0x28, 0x16, 0x45, 0x5c, 0x3f, 0xf2, 0x10, 0x3d, 0x7c, 0xf8, 0x68, 0xec,
  0xfb, 0x33, 0xcd, 0xd9, 0x0f, 0x0f, 0x28, 0xf1, 0x18, 0x8e, 0xfa, 0x29,
  0xd6, 0xdb, 0x03, 0x00, 0xe6, 0xf2, 0xd6, 0x00, 0x30, 0xae, 0x18, 0xdd,
  0x1f, 0xd4, 0x83, 0x04, 0x2d, 0xb9, 0x7a, 0xe4, 0xd2, 0xf0, 0xe9, 0x0e,
  0xc4, 0xe0, 0xd0, 0x62, 0x2d, 0x05, 0x00, 0xaf, 0x50, 0x17, 0x3a, 0xff,
  0xbb, 0x18, 0xeb, 0x3c, 0xfe, 0x8a, 0x30, 0x3b, 0x3d, 0xc1, 0x12, 0x3f,
  0x72, 0x27, 0xd9, 0x1d, 0xe6, 0x3a, 0x18, 0x59, 0x24, 0xd3, 0x2e, 0xe2,
  0x4a, 0xb4, 0x1a, 0xf2, 0x01, 0xf4, 0xea, 0x3c, 0x9f, 0x49, 0xf6, 0x92,
  0xff, 0x2a, 0x7d, 0x4a, 0x28, 0x08, 0x4f, 0x7e, 0x24, 0xfa, 0x4b, 0xab,
  0x46, 0xdb, 0xd8, 0xa1, 0xe1, 0xfb, 0x1b, 0x26, 0xe0, 0xd5, 0x19, 0x19,
  0x42, 0xd2, 0xfa, 0x46, 0x92, 0x21, 0xff, 0xe9, 0xf1, 0xb1, 0x6a, 0xed,
  0xe8, 0xf7, 0x37, 0xec, 0xf2, 0xfa, 0xec, 0xad, 0xff, 0xe4, 0x3b, 0xfb,
  0xc7, 0x40, 0xf4, 0xb7, 0xad, 0xfe, 0x31, 0xfe, 0xdb, 0xcd, 0x7f, 0xdb,
  0x55, 0xda, 0x15, 0xf7, 0xfd, 0xe6, 0xc8, 0x1b, 0x52, 0xc8, 0x25, 0x42,
  0x34, 0xce, 0xf2, 0xb3, 0x97, 0xd6, 0x28, 0xc5, 0x38, 0xc3, 0xdb, 0x8e,
  0xd2, 0xd5, 0x3a, 0xfc, 0xa6, 0x25, 0x05, 0x07, 0xf9, 0xff, 0x47, 0xe4,
  0xdc, 0xfd, 0xf4, 0xe3, 0x23, 0x08, 0xd4, 0xe7, 0xb9, 0xf6, 0x29, 0xd3,
  0x2b, 0xf1, 0x43, 0x24, 0x13, 0xe0, 0x35, 0x65, 0x5a, 0x18, 0x5d, 0xef,
  0xd4, 0xff, 0x09, 0x01, 0xef, 0xeb, 0x12, 0xe6, 0x22, 0xdf, 0x9e, 0xe6,
  0x3d, 0x04, 0x44, 0x1f, 0xf5, 0x27, 0x22, 0xf1, 0x16, 0x48, 0xfb, 0x0e,
  0x0c, 0xf3, 0xfa, 0x20, 0x2a, 0x02, 0xbf, 0xe6, 0xbe, 0xec, 0x2d, 0x00,
  0xc2, 0xe8, 0x1c, 0x22, 0xdf, 0x09, 0x1f, 0x3d, 0xa9, 0x39, 0xdf, 0x2e,
  0xb7, 0x4f, 0x2d, 0x12, 0x1a, 0xef, 0xeb, 0x13, 0x18, 0xd7, 0xf6, 0x17,
  0xfc, 0x19, 0x21, 0xd4, 0x23, 0xe0, 0x17, 0x13, 0xe3, 0x03, 0x36, 0x22,
  0x0a, 0xf8, 0xc7, 0xf1, 0xf5, 0xe4, 0xec, 0x10, 0xfb, 0xc0, 0xb9, 0xd3,
  0x10, 0xe5, 0xf9, 0xf8, 0xa5, 0x0d, 0xed, 0x14, 0x0c, 0x7f, 0x13, 0x12,
  0xe7, 0x4e, 0x1d, 0xf8, 0x15, 0xd5, 0xca, 0x15, 0xf8, 0x27, 0x40, 0x1b,
  0xc2, 0x42, 0xf7, 0xee, 0x1d, 0x0e, 0x03, 0xec, 0x09, 0x22, 0x1c, 0x02,
  0x18, 0xfc, 0xe4, 0x19, 0xdd, 0x2e, 0x35, 0xc1, 0xd6, 0xe6, 0x1b, 0x18,
  0x0c, 0x08, 0xc3, 0x3d, 0xf8, 0xf4, 0x1c, 0xd2, 0x8b, 0x3d, 0xff, 0x0a,
  0x18, 0xf3, 0xeb, 0xfb, 0xf3, 0xdc, 0xc2, 0x93, 0xfe, 0xf8, 0xeb, 0x0a,
  0xac, 0x47, 0xde, 0xe8, 0x0a, 0x03, 0xc2, 0x0a, 0x2b, 0xf2, 0x26, 0xe1,
  0x23, 0x1b, 0x05, 0xcb, 0x22, 0x1e, 0x3a, 0x09, 0xe6, 0x44, 0xf8, 0x0f,
  0x2b, 0x19, 0xe1, 0x56, 0xef, 0xc8, 0xff, 0xb8, 0xf4, 0x26, 0x30, 0xe4,
  0xda, 0x4d, 0xe9, 0xd8, 0xee, 0xd3, 0xc0, 0xea, 0xcb, 0xb9, 0x2a, 0x1c,
  0x0d, 0xdd, 0x26, 0xdd, 0x1c, 0xdf, 0xd1, 0x3a, 0x07, 0x17, 0x12, 0x2c,
  0x31, 0x1a, 0xff, 0xef, 0xf2, 0xe2, 0xff, 0xc4, 0xdd, 0x13, 0x0f, 0xf0,
  0x3b, 0xc4, 0x28, 0x0d, 0x81, 0x34, 0x14, 0xf9, 0x0e, 0x31, 0x25, 0x10,
  0x2a, 0x1b, 0xf1, 0x05, 0x1b, 0xe6, 0x87, 0xea, 0x36, 0x85, 0x27, 0x44,
  0xd0, 0x17, 0x23, 0xee, 0xef, 0xda, 0xd7, 0xfa, 0x10, 0x0f, 0x32, 0xc0,
  0x2c, 0xf5, 0x09, 0xde, 0x20, 0xea, 0x22, 0xa5, 0xb0, 0x25, 0xed, 0x0c,
  0x4f, 0x96, 0x36, 0xba, 0xdf, 0x21, 0xfd, 0xcf, 0xfa, 0xb2, 0x29, 0x22,
  0x27, 0x00, 0xea, 0xf6, 0x38, 0xd2, 0xcc, 0xfa, 0x24, 0xdc, 0x0b, 0xe4,
  0xfa, 0x19, 0x08, 0xdf, 0x0d, 0xdd, 0xf6, 0x07, 0xdc, 0xd6, 0xe8, 0xd5,
  0x27, 0xf4, 0x1c, 0x08, 0xd5, 0xf7, 0x49, 0xf0, 0xb6, 0x45, 0xce, 0x39,
  0x01, 0xbf, 0x32, 0xce, 0xc4, 0xfc, 0x32, 0xc8, 0x32, 0x31, 0xea, 0x09,
  0xf0, 0x2b, 0x55, 0xd2, 0x00, 0x16, 0xd9, 0xf7, 0xbd, 0x11, 0x3c, 0x27,
  0x1d, 0x27, 0x0f, 0xf4, 0x14, 0x1e, 0xf4, 0x2c, 0xef, 0xc1, 0x0c, 0xee,
  0xba, 0xf2, 0xf1, 0x19, 0x52, 0xc9, 0xc7, 0x31, 0xcd, 0xa3, 0x0d, 0xc8,
  0x59, 0x3a, 0x4b, 0xe3, 0xde, 0xf4, 0xbe, 0xd5, 0xe6, 0x70, 0xf4, 0xdf,
  0x0a, 0x35, 0x08, 0xe1, 0x2f, 0xf8, 0x81, 0x06, 0xfd, 0xf1, 0x0b, 0x1d,
  0x25, 0x1e, 0x0e, 0xe8, 0xed, 0x06, 0x0c, 0x1f, 0x02, 0xfd, 0x39, 0xdc,
  0x23, 0xc4, 0xfe, 0xc4, 0x73, 0xec, 0x32, 0x1c, 0xe9, 0xc5, 0xe7, 0xfa,
  0xe9, 0x5a, 0x4c, 0xe5, 0x12, 0xf7, 0x3a, 0x1b, 0xee, 0xf8, 0xf4, 0xf9,
  0xef, 0x31, 0xb4, 0xff, 0x57, 0xc1, 0x92, 0x22, 0xf8, 0x19, 0xd8, 0x18,
  0x2b, 0xcf, 0x1c, 0xe5, 0x24, 0x06, 0xf0, 0x5f, 0xed, 0xd3, 0x12, 0xe0,
  0x1d, 0x1e, 0x11, 0x24, 0x51, 0x9f, 0xa2, 0x04, 0x3f, 0xcf, 0xdd, 0xd6,
  0xa9, 0xf9, 0x02, 0xb3, 0xed, 0xbd, 0x3c, 0x00, 0xc3, 0x65, 0x59, 0xf2,
  0xb7, 0x97, 0x3c, 0xc7, 0xd9, 0x03, 0x89, 0x38, 0x32, 0x4b, 0xfb, 0x01,
  0x12, 0x08, 0x3a, 0xe3, 0xd5, 0x3c, 0xd9, 0x04, 0x09, 0xff, 0xe7, 0xd6,
  0x44, 0xd2, 0x1b, 0xdd, 0x51, 0x37, 0x21, 0x2b, 0x26, 0x26, 0x1a, 0x0c,
  0x28, 0xfc, 0xc5, 0xfc, 0x22, 0x43, 0x02, 0x1d, 0xbb, 0x67, 0x27, 0x16,
  0xa8, 0x05, 0xeb, 0x0d, 0xe8, 0xff, 0xae, 0x18, 0x18, 0xe2, 0x1a, 0xdf,
  0x25, 0x1b, 0x19, 0x19, 0x31, 0xf8, 0xfe, 0x1f, 0x12, 0x31, 0x0c, 0x14,
  0xe1, 0xb6, 0x01, 0x25, 0x41, 0x1b, 0xf5, 0x33, 0xff, 0x13, 0xec, 0xa0,
  0x28, 0x24, 0xbe, 0x41, 0xfe, 0xdc, 0x23, 0x15, 0xf2, 0x23, 0xfe, 0xbd,
  0xf0, 0xd3, 0x08, 0xff, 0xdd, 0x10, 0xc9, 0x23, 0x12, 0x0f, 0x2a, 0xe3,
  0x04, 0x06, 0x05, 0xaa, 0x0d, 0xd6, 0x17, 0xd1, 0xd4, 0x0d, 0x16, 0xe9,
  0x2d, 0xda, 0xfe, 0xdd, 0x19, 0xe4, 0xfd, 0x14, 0xf0, 0x2f, 0x03, 0xcb,
  0x15, 0x13, 0xb2, 0x0a, 0xd8, 0xd7, 0x28, 0x7f, 0xec, 0xe7, 0xfa, 0x15,
  0xf3, 0x4e, 0xbb, 0x04, 0xd2, 0x22, 0xe9, 0xf6, 0x0b, 0x10, 0xe3, 0x2e,
  0x47, 0x53, 0x1f, 0xeb, 0x23, 0x99, 0xcb, 0xcb, 0x35, 0xe3, 0xc0, 0x14,
  0x59, 0x4b, 0xba, 0xfd, 0xb1, 0x3c, 0x6f, 0x2c, 0x0c, 0x2f, 0x4d, 0xef,
  0x1d, 0xc3, 0x11, 0x25, 0x52, 0x81, 0x3d, 0xe9, 0xe1, 0xd6, 0x1d, 0x47,
  0x05, 0xd0, 0x95, 0xf3, 0x06, 0x1a, 0xee, 0xed, 0x9d, 0x35, 0xd0, 0xc9,
  0x9c, 0x21, 0xbf, 0xd2, 0xda, 0xed, 0xd7, 0xe5, 0xf0, 0x09, 0x20, 0xf1,
  0x3f, 0xe6, 0x09, 0xfc, 0xaf, 0x57, 0x48, 0x00, 0xcf, 0x71, 0xec, 0x47,
  0x13, 0x20, 0x01, 0x1a, 0x52, 0x11, 0x34, 0xeb, 0x2b, 0xc7, 0x3d, 0x0b,
  0x23, 0xfc, 0x44, 0xcf, 0x05, 0xfc, 0x33, 0xed, 0xf8, 0x1b, 0xa5, 0xcd,
  0x37, 0xb6, 0x43, 0x06, 0xf7, 0xfb, 0xc5, 0xe1, 0x17, 0xb6, 0x21, 0xd8,
  0xa2, 0xdd, 0xd3, 0x1d, 0x4a, 0xc1, 0xf2, 0xf7, 0xc5, 0x29, 0xff, 0x1a,
  0xf8, 0xde, 0x0e, 0x15, 0xda, 0x1a, 0xff, 0x02, 0x0b, 0xef, 0x24, 0xf1,
  0xbe, 0xb6, 0xf0, 0xaf, 0x39, 0x0a, 0x17, 0x43, 0x25, 0x0d, 0xdb, 0x54,
  0x3b, 0x12, 0xff, 0xee, 0xd1, 0x08, 0xc7, 0xbc, 0x04, 0x02, 0xce, 0x0e,
  0x43, 0x06, 0xf9, 0xf8, 0x37, 0xef, 0xd9, 0x5b, 0xc7, 0x0e, 0x24, 0xf8,
  0xeb, 0x2c, 0x05, 0xbf, 0xa9, 0xf2, 0xf6, 0x09, 0x39, 0xef, 0x0e, 0x0e,
  0xed, 0xcd, 0xc0, 0x81, 0x02, 0xeb, 0x19, 0x03, 0xd6, 0xc8, 0x04, 0x41,
  0x2f, 0x1a, 0xff, 0xec, 0x06, 0xde, 0x25, 0x08, 0xee, 0x34, 0xff, 0x05,
  0x1a, 0x02, 0xdc, 0xfb, 0x2b, 0xb0, 0xee, 0x19, 0xff, 0x06, 0xdb, 0xf9,
  0x13, 0x2c, 0x10, 0xd8, 0xf8, 0x0c, 0xdc, 0xd2, 0x44, 0xf6, 0xe4, 0xe4,
  0x05, 0x0d, 0x1d, 0xbb, 0xa7, 0x0a, 0x27, 0xe4, 0x0b, 0xf9, 0x00, 0xe9,
  0x4d, 0xef, 0x39, 0x2b, 0x1e, 0xed, 0x0d, 0xdf, 0xe4, 0x1a, 0x1d, 0xf2,
  0xda, 0xe3, 0xf1, 0x0b, 0x58, 0xd7, 0xe6, 0xe8, 0x00, 0xe1, 0x32, 0xfd,
  0x1f, 0x36, 0x55, 0x0e, 0xe6, 0xfe, 0xef, 0x2e, 0x22, 0xcf, 0x08, 0x3c,
  0x2c, 0x0b, 0xe1, 0x3d, 0x53, 0xc7, 0x40, 0x29, 0x10, 0x81, 0xe5, 0xd3,
  0x1b, 0xe4, 0x0f, 0xd1, 0xd7, 0xef, 0xfd, 0x33, 0xfc, 0x09, 0x04, 0xcf,
  0xf0, 0xff, 0xe1, 0x04, 0x0e, 0x26, 0x23, 0x24, 0x84, 0x2b, 0x9f, 0x4f,
  0x02, 0xbf, 0x08, 0xe6, 0xd1, 0xea, 0x17, 0x0d, 0x0f, 0xd7, 0xfd, 0x2b,
  0xec, 0x0f, 0xd6, 0x58, 0xde, 0xd8, 0x3d, 0x03, 0x33, 0xfb, 0xcc, 0xd9,
  0x11, 0x1a, 0x1b, 0x0c, 0xf6, 0x0a, 0x9a, 0x08, 0xd9, 0x17, 0xcc, 0xaa,
  0xfb, 0x0b, 0xbe, 0x1a, 0xe0, 0x48, 0xd5, 0x28, 0xda, 0x01, 0x3a, 0x59,
  0xb0, 0xaf, 0x41, 0xa6, 0x1c, 0xdb, 0xd9, 0x44, 0x2d, 0xab, 0xdc, 0xf9,
  0xda, 0x14, 0xc4, 0x11, 0xd1, 0xd3, 0x0f, 0x2c, 0xc6, 0x04, 0x05, 0x23,
  0x14, 0x1b, 0xf1, 0x4e, 0xf9, 0x0c, 0xf7, 0xfe, 0xf3, 0x28, 0x2f, 0x31,
  0xc2, 0xe5, 0x01, 0x11, 0xe6, 0x3f, 0xc2, 0x8c, 0x43, 0xfd, 0x50, 0x10,
  0xc0, 0xd6, 0x20, 0x02, 0x20, 0xd9, 0xb0, 0x37, 0xe7, 0x2b, 0x3e, 0xce,
  0xf0, 0xa9, 0x81, 0xe9, 0xb1, 0x4e, 0x22, 0x27, 0xf9, 0x20, 0xe8, 0xc1,
  0x2a, 0xd3, 0xd0, 0x10, 0x22, 0xfe, 0x0e, 0xfc, 0xd7, 0x0f, 0x15, 0x0c,
  0xf0, 0xf5, 0xed, 0x00, 0x28, 0xf1, 0xcb, 0x31, 0xcf, 0x3e, 0x11, 0x0b,
  0x2d, 0x27, 0x2c, 0xff, 0x87, 0x02, 0x31, 0xf8, 0xea, 0x9f, 0x14, 0xfa,
  0x1d, 0x05, 0xec, 0x90, 0x08, 0x53, 0x15, 0x39, 0x05, 0xe7, 0xcc, 0x20,
  0x4c, 0xef, 0xdb, 0xdf, 0x2f, 0x02, 0x4b, 0xe8, 0x0e, 0x43, 0x5a, 0xe4,
  0x0c, 0xd2, 0x1e, 0xe9, 0x76, 0x14, 0x03, 0x65, 0xe2, 0xb8, 0x15, 0x10,
  0xa8, 0x1e, 0x69, 0xb8, 0x04, 0xe0, 0x39, 0xc3, 0x1c, 0xe0, 0xc9, 0xc3,
  0x0a, 0x16, 0xe6, 0xec, 0x30, 0x03, 0x30, 0x3d, 0x91, 0xd9, 0xf2, 0xec,
  0xed, 0x3e, 0xb2, 0x31, 0x09, 0x39, 0xda, 0xe9, 0x1a, 0xe1, 0x18, 0x97,
  0x3d, 0xc9, 0x0d, 0xe5, 0xec, 0x4c, 0x19, 0xac, 0x3f, 0xc6, 0x39, 0x32,
  0xf6, 0x18, 0x37, 0xc1, 0x1e, 0xb8, 0x2c, 0xf2, 0x38, 0xe3, 0x15, 0x01,
  0x3c, 0xa2, 0xf7, 0x00, 0xb9, 0x57, 0xdc, 0xed, 0xde, 0xf7, 0xa9, 0x81,
  0xb6, 0xfa, 0x06, 0x0d, 0x23, 0x52, 0x09, 0x29, 0xe9, 0xee, 0x16, 0xef,
  0x21, 0xf7, 0xb6, 0xbd, 0xf1, 0xf9, 0xf1, 0x19, 0xcc, 0x14, 0xeb, 0xcc,
  0x33, 0x16, 0x04, 0xd2, 0xce, 0x1d, 0x92, 0xc3, 0xf3, 0x01, 0xfb, 0x18,
  0xfe, 0x01, 0x2c, 0x17, 0xdb, 0x23, 0x17, 0x09, 0x0c, 0xfa, 0xda, 0xb5,
  0x0a, 0xcd, 0xcd, 0xf1, 0x19, 0x17, 0xf2, 0x0c, 0x37, 0xf0, 0xf6, 0x13,
  0x15, 0x0e, 0x04, 0x1b, 0xca, 0xa2, 0xf6, 0x1e, 0xf2, 0x2a, 0xca, 0x11,
  0x1b, 0xd5, 0xdb, 0xfe, 0xb1, 0x0f, 0xe5, 0xcc, 0x18, 0xf7, 0xfa, 0x22,
  0xcc, 0xd6, 0x08, 0x11, 0x02, 0xff, 0x14, 0x67, 0xb9, 0xf9, 0xc1, 0xb0,
  0xd8, 0xd6, 0xe9, 0x01, 0xeb, 0x0f, 0x35, 0x2c, 0xf9, 0x02, 0xe3, 0x0d,
  0xe4, 0xe9, 0x06, 0x16, 0xe8, 0xc0, 0x2b, 0xf4, 0x02, 0x32, 0xdd, 0x2e,
  0x16, 0x21, 0xfd, 0x1e, 0xe5, 0x25, 0xc3, 0x03, 0x18, 0xd1, 0xd6, 0x1f,
  0xa4, 0xed, 0xe3, 0xb4, 0x36, 0xd9, 0x4a, 0x09, 0xf1, 0x2c, 0x01, 0x3c,
  0x17, 0xcf, 0x11, 0xdf, 0xcc, 0xf4, 0x0d, 0x36, 0xb0, 0xf6, 0x0e, 0xf6,
  0xfd, 0xfc, 0xdd, 0x03, 0xe5, 0x06, 0x9d, 0xea, 0xba, 0x4a, 0xab, 0xd7,
  0x51, 0x01, 0xf4, 0x08, 0xbf, 0xac, 0x01, 0x4d, 0x2b, 0x27, 0xc1, 0xce,
  0xbd, 0xd4, 0x33, 0xea, 0x01, 0x3a, 0x2e, 0xf9, 0x37, 0xf5, 0x14, 0x1a,
  0xf6, 0x3e, 0xe6, 0xc9, 0xc0, 0x07, 0x1b, 0xf4, 0xe6, 0x0c, 0xf3, 0xc4,
  0x36, 0xd4, 0xec, 0x0f, 0xdc, 0x3a, 0xc8, 0xf4, 0x27, 0x2e, 0x19, 0x30,
  0x34, 0x2f, 0x06, 0x15, 0xf9, 0xd6, 0xe9, 0xdc, 0xf3, 0x60, 0x25, 0x11,
  0x45, 0x3d, 0xdb, 0xe2, 0x30, 0x08, 0x3b, 0xd8, 0x81, 0xd3, 0xf1, 0x03,
  0xc5, 0x6a, 0x1b, 0xe6, 0xad, 0xf9, 0x1c, 0x2e, 0xdb, 0x15, 0x18, 0xfd,
  0xd3, 0xb5, 0x89, 0xfa, 0xf2, 0xe7, 0x41, 0xcc, 0x02, 0x16, 0xba, 0x5c,
  0x60, 0x3a, 0x15, 0x1e, 0x07, 0x9c, 0xbe, 0xce, 0x1e, 0xd3, 0xff, 0xff,
  0x04, 0x00, 0x00, 0x00, 0x40, 0x00, 0x00, 0x00, 0x09, 0x08, 0x00, 0x00,
  0xb2, 0x0d, 0x00, 0x00, 0x26, 0x07, 0x00, 0x00, 0xa2, 0xf3, 0xff, 0xff,
  0x1d, 0xec, 0xff, 0xff, 0x6a, 0x06, 0x00, 0x00, 0x1c, 0xfd, 0xff, 0xff,
  0x59, 0x12, 0x00, 0x00, 0x2b, 0xfe, 0xff, 0xff, 0xeb, 0xee, 0xff, 0xff,
  0xf8, 0x00, 0x00, 0x00, 0xa2, 0x0e, 0x00, 0x00, 0x24, 0x08, 0x00, 0x00,
  0xb7, 0xee, 0xff, 0xff, 0x52, 0x2a, 0x00, 0x00, 0xec, 0x1b, 0x00, 0x00,
  0x6a, 0xd3, 0xff, 0xff, 0x04, 0x00, 0x00, 0x00, 0x80, 0x0d, 0x00, 0x00,
  0xf8, 0x1f, 0xd0, 0xf0, 0xad, 0x81, 0x3d, 0x47, 0x00, 0x26, 0xfc, 0xfb,
  0xda, 0x01, 0xb6, 0xd6, 0xf9, 0x28, 0x4b, 0x14, 0xcd, 0xea, 0xfa, 0x3c,
  0xe7, 0x1b, 0x25, 0xca, 0xc0, 0x07, 0xe2, 0x09, 0xf3, 0x04, 0xee, 0x00,
  0xc4, 0xdd, 0xaf, 0x2a, 0xcd, 0x04, 0x31, 0xd6, 0x67, 0x3d, 0x38, 0xed,
  0x15, 0xe3, 0xc8, 0xf1, 0xfd, 0xe8, 0x3b, 0x1c, 0x1a, 0x08, 0xe8, 0x2e,
  0xc7, 0xf6, 0xc0, 0x17, 0xbc, 0xe7, 0x1d, 0x2d, 0xe7, 0xf3, 0x2e, 0x32,
  0x06, 0x43, 0x1b, 0xa0, 0x06, 0x11, 0x10, 0xc2, 0x38, 0xe8, 0x05, 0x0a,
  0xc9, 0xa1, 0xf7, 0xba, 0x0b, 0x5a, 0x61, 0x0c, 0x59, 0x0e, 0x48, 0x0e,
  0x17, 0xdc, 0xee, 0xde, 0x2d, 0x1c, 0x32, 0xdf, 0x07, 0xdc, 0x08, 0xd1,
  0x83, 0xec, 0xec, 0x1c, 0x00, 0x33, 0x0e, 0x41, 0xbd, 0xbc, 0x0e, 0x28,
  0x1b, 0x04, 0xe2, 0xd3, 0x08, 0xf3, 0xe0, 0xe6, 0xf7, 0xb4, 0x39, 0x31,
  0xfe, 0xfc, 0x20, 0xe1, 0x6b, 0x3d, 0x38, 0xf7, 0x04, 0xef, 0x14, 0x19,
  0xe0, 0xd3, 0x18, 0x12, 0xbf, 0x1c, 0x04, 0xf7, 0xfc, 0xea, 0x45, 0xf3,
  0x93, 0xfe, 0x3e, 0x26, 0xce, 0xf2, 0xff, 0x13, 0xf1, 0xfb, 0x18, 0x09,
  0x36, 0x18, 0x0f, 0xd3, 0xfa, 0xf7, 0xf5, 0x13, 0xfe, 0x05, 0xd3, 0x12,
  0x25, 0xfa, 0x28, 0x04, 0x1b, 0x19, 0x0a, 0xc6, 0x03, 0x67, 0x81, 0x07,
  0x1c, 0xe3, 0xf6, 0xcb, 0x11, 0x38, 0x26, 0xc0, 0xc3, 0xb0, 0x5c, 0xdf,
  0xbe, 0x47, 0x34, 0xf0, 0xc4, 0x0c, 0xfc, 0x03, 0x2b, 0x01, 0x19, 0x0f,
  0xfd, 0x1c, 0x24, 0xdf, 0x05, 0x2b, 0xf0, 0x24, 0x1a, 0x1a, 0xdc, 0x0b,
  0x03, 0xde, 0x3a, 0x0c, 0x2c, 0x28, 0xd5, 0xe3, 0xd8, 0x41, 0xbb, 0x00,
  0x0c, 0x00, 0xce, 0xe6, 0x20, 0x1e, 0xf7, 0xf6, 0xdd, 0xdf, 0x0e, 0x06,
  0xb8, 0x2e, 0x34, 0xc9, 0x14, 0xfc, 0x1a, 0xf8, 0x4a, 0x26, 0x0a, 0xd3,
  0xd6, 0xe1, 0x0c, 0xf4, 0x08, 0x47, 0x07, 0x00, 0x0d, 0xed, 0x0d, 0xd1,
  0xed, 0x09, 0x17, 0xdc, 0x4d, 0x09, 0xf3, 0x0a, 0xf0, 0x4b, 0xa5, 0x18,
  0xe6, 0xc8, 0x2d, 0xf5, 0xca, 0xff, 0x00, 0x09, 0x14, 0x09, 0x11, 0x38,
  0x09, 0x09, 0xf5, 0x09, 0xf2, 0x30, 0xf1, 0x00, 0xf9, 0x23, 0xf0, 0x29,
  0x13, 0xe5, 0x22, 0x0b, 0xe0, 0xb9, 0xfd, 0x23, 0xe4, 0xd6, 0x0a, 0xf1,
  0xd0, 0x1e, 0xed, 0xf6, 0x1b, 0x00, 0x05, 0xfa, 0xdf, 0x04, 0x23, 0x2c,
  0x22, 0x0f, 0xd6, 0x04, 0xf8, 0x07, 0xf9, 0x1b, 0x21, 0xcd, 0xee, 0x2c,
  0x2c, 0xe0, 0x00, 0xf5, 0xfe, 0xf7, 0xed, 0x23, 0x33, 0x09, 0xf0, 0x04,
  0x16, 0xd4, 0x10, 0x32, 0xd6, 0xf2, 0x10, 0x2c, 0xa9, 0xbf, 0xed, 0xea,
  0x1e, 0xde, 0x0b, 0x0e, 0x02, 0x23, 0x21, 0xf6, 0xfa, 0x2f, 0x24, 0x4c,
  0xe2, 0xb7, 0x31, 0x1a, 0xfa, 0xf8, 0x02, 0x0d, 0x1b, 0xf9, 0xdd, 0x1b,
  0x04, 0x08, 0xe9, 0xcb, 0xdf, 0xc0, 0xd8, 0x18, 0x33, 0xfc, 0x0c, 0x08,
  0xfe, 0xf0, 0x09, 0x2c, 0x02, 0x03, 0x0a, 0x42, 0xff, 0x17, 0x12, 0x3f,
  0x10, 0xec, 0x19, 0x30, 0x09, 0xf4, 0xcf, 0x06, 0xd6, 0xfe, 0xf8, 0x7f,
  0xe9, 0xf6, 0x2e, 0xcd, 0xc9, 0x15, 0xf3, 0xbc, 0x58, 0x28, 0xe8, 0x26,
  0xc3, 0x0c, 0xae, 0x30, 0x18, 0xcf, 0xfa, 0x81, 0x10, 0xfc, 0xf5, 0xca,
  0x3c, 0x13, 0xea, 0x28, 0xbb, 0x1b, 0x00, 0x03, 0x15, 0xe1, 0xe6, 0x28,
  0xac, 0x0a, 0x06, 0x28, 0x1c, 0x1d, 0xb7, 0x26, 0xce, 0x0b, 0x09, 0x2e,
  0x02, 0xdc, 0xd0, 0xda, 0x36, 0x33, 0xfb, 0xde, 0x21, 0xed, 0x05, 0x10,
  0x07, 0x02, 0xb3, 0xdd, 0x45, 0xe9, 0xfa, 0xef, 0xe4, 0xee, 0xf4, 0xfb,
  0x4d, 0x18, 0x2b, 0x02, 0xcc, 0x27, 0x0e, 0xff, 0xf7, 0xe2, 0x5e, 0xc5,
  0xcd, 0x04, 0xfa, 0xf8, 0x0a, 0x15, 0xbb, 0x1e, 0xb0, 0x12, 0x07, 0x16,
  0x1c, 0x28, 0xf0, 0xba, 0x57, 0x53, 0x83, 0x0b, 0x15, 0x37, 0x1f, 0x12,
  0x49, 0x18, 0xdd, 0xa1, 0x04, 0x03, 0xd9, 0x49, 0xe5, 0x2f, 0xed, 0xe8,
  0x02, 0xb2, 0xff, 0x05, 0xa5, 0xdd, 0xbf, 0x20, 0x02, 0x10, 0x24, 0xfd,
  0xe7, 0xa7, 0xdb, 0xc4, 0x11, 0xfd, 0xf1, 0x16, 0xdb, 0x10, 0xf0, 0x0e,
  0x15, 0xab, 0x0d, 0x06, 0xfa, 0xbd, 0xf7, 0xe8, 0xfe, 0xef, 0xc2, 0x42,
  0x11, 0xfa, 0xe6, 0x21, 0xa7, 0xfa, 0x3d, 0x36, 0xc4, 0x08, 0x1f, 0xf2,
  0xde, 0x0d, 0xf6, 0xde, 0xfe, 0xda, 0x0b, 0x17, 0x12, 0xc7, 0x29, 0x34,
  0xda, 0x12, 0x36, 0x19, 0x19, 0x4c, 0x5b, 0x2b, 0xda, 0xb8, 0xe3, 0x33,
  0x37, 0x08, 0xfc, 0xe8, 0x0c, 0xba, 0x20, 0x18, 0x17, 0xdd, 0xfa, 0x23,
  0x14, 0x22, 0x93, 0x14, 0xee, 0xd2, 0x2f, 0xf2, 0x1f, 0xea, 0xf6, 0x21,
  0xca, 0x10, 0xd1, 0x13, 0x2c, 0xe9, 0xfc, 0xe9, 0x04, 0xd8, 0x61, 0x2b,
  0xd3, 0xe2, 0x34, 0xf2, 0xfd, 0x1f, 0x28, 0xf0, 0x20, 0xad, 0x01, 0xfd,
  0x1d, 0x2e, 0xfc, 0xa8, 0x3e, 0x0a, 0x12, 0x3f, 0xf9, 0xda, 0xde, 0x2b,
  0x13, 0x5b, 0xa3, 0xf9, 0xf6, 0xdc, 0xd4, 0xfb, 0x0e, 0xee, 0xe0, 0x26,
  0xec, 0xf0, 0xe3, 0x20, 0x29, 0xee, 0x05, 0x03, 0x15, 0x1f, 0x3a, 0x33,
  0xd2, 0xbc, 0x06, 0x05, 0xda, 0x41, 0x1a, 0x81, 0x22, 0xc3, 0xe6, 0xf0,
  0x20, 0xfa, 0xde, 0x2f, 0x05, 0xfc, 0xa0, 0xc8, 0xcb, 0xec, 0xb9, 0x05,
  0xf6, 0xd4, 0x1d, 0x2b, 0xf0, 0x3c, 0x3d, 0xf9, 0x00, 0xda, 0xe0, 0xcc,
  0x01, 0xdf, 0xf4, 0xe6, 0x1a, 0x10, 0xf2, 0x34, 0xff, 0x27, 0x62, 0x14,
  0xf6, 0x15, 0x3b, 0x1f, 0x56, 0x01, 0x1d, 0x00, 0xb1, 0x28, 0xf4, 0x2f,
  0x12, 0x1a, 0x13, 0xad, 0x6f, 0xe9, 0xa7, 0xd6, 0x16, 0x00, 0xaf, 0xc7,
  0xc2, 0x10, 0x24, 0x20, 0x29, 0x67, 0x07, 0x1d, 0xd7, 0x25, 0xeb, 0xfe,
  0x10, 0x0d, 0xff, 0xf2, 0xd3, 0x05, 0x34, 0x15, 0x8d, 0x03, 0x05, 0x2a,
  0x27, 0x7f, 0x59, 0xc4, 0xf6, 0x0c, 0x1f, 0x1e, 0xd0, 0x14, 0x12, 0x6b,
  0x1a, 0x0f, 0x20, 0xaa, 0xf7, 0xe9, 0xd7, 0xde, 0x04, 0xe7, 0xde, 0xe8,
  0xe4, 0x0b, 0xe2, 0x27, 0x9c, 0x11, 0x3d, 0xed, 0xd6, 0x48, 0x20, 0x29,
  0x5f, 0x3e, 0x12, 0x1e, 0xad, 0x14, 0x16, 0xef, 0xec, 0xd1, 0x04, 0x30,
  0x3a, 0x5d, 0x1b, 0xf3, 0xdd, 0x1d, 0x14, 0x2a, 0xed, 0x48, 0x31, 0x3b,
  0xc9, 0x13, 0x02, 0x4d, 0x11, 0xaa, 0xfd, 0x32, 0x0d, 0x3d, 0x3a, 0x08,
  0xd1, 0xf4, 0xe6, 0x26, 0x2c, 0x09, 0x00, 0x2a, 0x01, 0xc8, 0xba, 0xf3,
  0xad, 0x2d, 0x03, 0xee, 0x34, 0xcd, 0xd4, 0xde, 0x3d, 0xdc, 0x1c, 0xaf,
  0xe9, 0x26, 0x16, 0xee, 0xf1, 0xf0, 0x1f, 0x03, 0x45, 0x1a, 0x34, 0x1c,
  0x22, 0xf7, 0x03, 0x32, 0xd6, 0xa3, 0xca, 0xe8, 0xcd, 0x13, 0x43, 0xf9,
  0x06, 0x15, 0xc2, 0xdf, 0xbb, 0x08, 0xe0, 0x2b, 0xcc, 0x0e, 0xf4, 0xb8,
  0xe9, 0x14, 0x0b, 0x42, 0x18, 0xfd, 0xe5, 0xec, 0x4a, 0x1f, 0x1e, 0x81,
  0xfe, 0x0d, 0x0d, 0xe0, 0xed, 0x00, 0x0f, 0x1f, 0x15, 0xfb, 0x4b, 0x22,
  0x1c, 0xe7, 0xfa, 0xaf, 0xce, 0xdb, 0xce, 0xe7, 0xc5, 0x13, 0x33, 0x2f,
  0xd5, 0x4d, 0xef, 0x8c, 0x16, 0x23, 0x1e, 0xd4, 0x12, 0x19, 0x13, 0xe9,
  0x24, 0x05, 0xe3, 0x1e, 0xd4, 0xfb, 0xfa, 0x2e, 0x24, 0x32, 0x10, 0xa2,
  0xec, 0x0d, 0xfa, 0x1d, 0x2a, 0xce, 0x1f, 0x2b, 0x22, 0xe6, 0xe7, 0xff,
  0xf3, 0xdb, 0xa8, 0x1b, 0x06, 0x70, 0xaf, 0xc1, 0xab, 0xfa, 0x32, 0x2b,
  0x19, 0x16, 0x4c, 0x2d, 0xcc, 0xe6, 0xd3, 0xf6, 0xfa, 0x03, 0x13, 0xe3,
  0x00, 0x06, 0x20, 0x06, 0x04, 0xfa, 0x15, 0xd4, 0x24, 0xee, 0x1f, 0x25,
  0x38, 0x2a, 0x1c, 0xef, 0xf6, 0x29, 0x06, 0x12, 0x8a, 0x0b, 0x41, 0x29,
  0x19, 0xe9, 0xfa, 0xfc, 0xd9, 0x58, 0x81, 0xc5, 0xec, 0xce, 0x20, 0xf3,
  0xf7, 0x14, 0xee, 0x1b, 0xcf, 0xf1, 0x14, 0x3c, 0x13, 0x08, 0xe9, 0x04,
  0xff, 0x2c, 0x34, 0x0c, 0x08, 0xa0, 0x0d, 0xe8, 0x5c, 0x14, 0x13, 0xfd,
  0x35, 0xea, 0x1f, 0x45, 0x18, 0x3a, 0xe3, 0x0a, 0xb1, 0xd7, 0x02, 0x27,
  0x09, 0xfb, 0x03, 0xc0, 0x86, 0x35, 0xd5, 0x19, 0xf0, 0x98, 0x26, 0xf0,
  0x10, 0x09, 0xd2, 0x2b, 0xff, 0xfc, 0x6a, 0x36, 0x31, 0x1d, 0xce, 0xe2,
  0x11, 0xdc, 0xef, 0x26, 0xc1, 0xd9, 0xe8, 0xd5, 0x0c, 0x1a, 0x5c, 0xd8,
  0x29, 0xdd, 0x12, 0x13, 0x28, 0x06, 0xf1, 0x14, 0xce, 0xdf, 0xb8, 0x0b,
  0xf4, 0x47, 0x1a, 0x66, 0x09, 0x08, 0xf5, 0x21, 0x0a, 0xa8, 0xd4, 0x43,
  0x24, 0xdc, 0xc1, 0xf0, 0x43, 0xd3, 0xfc, 0x4d, 0xcc, 0xf0, 0xfe, 0x20,
  0xd3, 0xd0, 0x08, 0x11, 0x05, 0xfc, 0xc3, 0x20, 0xd2, 0xe4, 0xb3, 0x7f,
  0xce, 0x3b, 0xf3, 0x1c, 0xe2, 0xe9, 0xf3, 0x0b, 0xa5, 0x69, 0xc1, 0x39,
  0xf9, 0x02, 0xcf, 0x21, 0x09, 0x20, 0x31, 0x4e, 0x95, 0xe2, 0xdc, 0xe7,
  0xed, 0xfa, 0xcb, 0x1b, 0xf2, 0x99, 0xd9, 0x04, 0xf0, 0x14, 0x11, 0x26,
  0xe2, 0x0d, 0x38, 0x03, 0x15, 0xcb, 0xe9, 0x46, 0x20, 0x16, 0xb4, 0x2b,
  0xc5, 0x25, 0xdb, 0x35, 0x0e, 0x2a, 0xd7, 0xb8, 0xba, 0x6f, 0x36, 0x25,
  0x0d, 0xea, 0x0c, 0x13, 0xf6, 0x1e, 0x14, 0x1a, 0xbc, 0xcc, 0xe2, 0xb5,
  0xbe, 0xf6, 0xa1, 0x00, 0x01, 0xdd, 0xbb, 0xa4, 0x09, 0xff, 0xe9, 0x25,
  0xea, 0x2b, 0x1d, 0xb3, 0xf4, 0xfb, 0xd4, 0x1a, 0x16, 0x24, 0xb9, 0xbe,
  0x0a, 0x26, 0xaa, 0x67, 0xf8, 0x1c, 0x12, 0xff, 0x0d, 0x3a, 0x3f, 0xf4,
  0xe7, 0xd4, 0x3b, 0x41, 0x31, 0x0a, 0x23, 0xfc, 0x18, 0x1f, 0xb1, 0xf8,
  0x1a, 0x12, 0x0f, 0xd9, 0xf7, 0xc8, 0xf2, 0x85, 0xdd, 0x16, 0x1c, 0x59,
  0x49, 0x06, 0x2d, 0x3a, 0x33, 0xf4, 0x22, 0x3c, 0x06, 0xdd, 0xc9, 0x22,
  0xc2, 0xeb, 0xfd, 0x53, 0x07, 0x95, 0xf5, 0x24, 0x52, 0xe3, 0x0d, 0x15,
  0x08, 0xdd, 0x09, 0xe4, 0x27, 0x55, 0xfe, 0x2d, 0xfd, 0xf6, 0xb1, 0x0a,
  0xf4, 0x30, 0x5c, 0xeb, 0x2b, 0xf8, 0xdf, 0xe6, 0x25, 0x15, 0xdd, 0x58,
  0x40, 0x15, 0x24, 0x01, 0x22, 0xe8, 0x11, 0x23, 0x09, 0xea, 0xe5, 0xe1,
  0xea, 0xae, 0xdf, 0x35, 0x10, 0xd3, 0xea, 0x0a, 0x7f, 0xee, 0x1d, 0x0b,
  0x33, 0xe0, 0xe4, 0x1b, 0x28, 0x4f, 0x28, 0x31, 0xf3, 0xea, 0xee, 0xdf,
  0x0f, 0x1f, 0x56, 0xd8, 0x2a, 0x12, 0xe8, 0xbc, 0xe0, 0x1d, 0xb1, 0x18,
  0xce, 0xf7, 0xf9, 0xe9, 0xe1, 0xe4, 0x0c, 0x04, 0xef, 0x0b, 0xd5, 0xcc,
  0x0f, 0xb5, 0xb7, 0x18, 0x39, 0x18, 0xfe, 0xf9, 0x25, 0x4b, 0x0a, 0xe5,
  0x6b, 0x1b, 0xf6, 0x0a, 0x2f, 0xfb, 0x68, 0x59, 0xe2, 0x51, 0xe2, 0xff,
  0x12, 0xd3, 0xa2, 0x7e, 0xd7, 0x3d, 0x37, 0xf5, 0xe4, 0xca, 0x19, 0x2a,
  0x33, 0xec, 0xea, 0xc2, 0x31, 0x54, 0xde, 0xc3, 0xa7, 0xfd, 0x15, 0xfb,
  0xc8, 0xe7, 0x98, 0xc4, 0x2b, 0xc7, 0xc3, 0x31, 0x1a, 0x23, 0xf4, 0xa5,
  0x63, 0x3d, 0x28, 0xd7, 0x2a, 0x31, 0x76, 0x3b, 0xfc, 0xc8, 0xb9, 0x25,
  0x3a, 0xf0, 0x8f, 0xbc, 0x25, 0x2c, 0xd5, 0x23, 0xed, 0xcc, 0xf3, 0x09,
  0x11, 0x1a, 0xc9, 0xe9, 0xea, 0x53, 0xe1, 0xc4, 0x85, 0xb0, 0x0b, 0xce,
  0x02, 0x35, 0xb9, 0xc6, 0x06, 0x2e, 0xf0, 0x3a, 0x52, 0x7d, 0xf2, 0xd1,
  0x19, 0xdd, 0x7e, 0xf7, 0xf4, 0x08, 0xdc, 0x1e, 0xd9, 0x20, 0xd4, 0x00,
  0x1b, 0xec, 0x41, 0x12, 0xc6, 0xa8, 0x01, 0xe9, 0xf3, 0x1c, 0xc4, 0x6e,
  0x02, 0xf0, 0xdf, 0x1a, 0x30, 0x31, 0xea, 0xc9, 0xf9, 0x9a, 0xf8, 0xa4,
  0x6b, 0x14, 0x81, 0xce, 0x0f, 0x2d, 0x04, 0x55, 0xf6, 0x5e, 0xa0, 0xc9,
  0xfd, 0xe6, 0x3f, 0x28, 0x37, 0xf4, 0xf3, 0x13, 0x22, 0xdf, 0xa5, 0xdd,
  0xe6, 0x31, 0xef, 0xe9, 0x0a, 0xfe, 0xec, 0x2b, 0x9d, 0x1b, 0x2b, 0xc9,
  0xf6, 0xeb, 0x1b, 0x14, 0xfb, 0x31, 0xb5, 0x02, 0x38, 0x15, 0xc7, 0x21,
  0xe9, 0x44, 0x1e, 0xd5, 0xa4, 0x47, 0x11, 0xf3, 0x1a, 0xd4, 0xe7, 0x0e,
  0xec, 0xee, 0x1b, 0x18, 0x3f, 0xe6, 0x34, 0xf2, 0x00, 0xe1, 0x96, 0xeb,
  0xdc, 0x64, 0x1b, 0x15, 0x24, 0xda, 0x0f, 0xf7, 0xed, 0x0c, 0xe0, 0xd6,
  0x08, 0xd6, 0xe8, 0xcb, 0x3a, 0xe2, 0xcc, 0x1d, 0x4b, 0x27, 0xf4, 0x32,
  0xb5, 0x24, 0x1e, 0xf4, 0xe7, 0x42, 0x28, 0xf8, 0xcb, 0xf4, 0xf7, 0xbf,
  0x06, 0xe4, 0x0b, 0x06, 0x4c, 0x05, 0x27, 0xdc, 0xfa, 0x93, 0xc4, 0x2d,
  0xda, 0x6b, 0x03, 0xf3, 0x0a, 0xc5, 0x2f, 0xb2, 0x05, 0xf1, 0x01, 0x2f,
  0x0d, 0xb1, 0x0d, 0x85, 0xf8, 0x3c, 0x08, 0xe3, 0x0e, 0x35, 0x0e, 0x0d,
  0xe6, 0xde, 0xee, 0x2d, 0x81, 0xe2, 0x38, 0x02, 0xf0, 0xfe, 0x9e, 0xcd,
  0xec, 0xd8, 0xb2, 0xb9, 0x21, 0x3e, 0x11, 0xd6, 0xe2, 0x41, 0x1d, 0x19,
  0xb6, 0x15, 0x28, 0x09, 0x06, 0xa0, 0xed, 0xf2, 0xbe, 0x35, 0x06, 0x25,
  0xf5, 0xd4, 0x23, 0x21, 0xf0, 0x10, 0x20, 0x2b, 0x54, 0xcd, 0x2d, 0xbf,
  0x31, 0xff, 0xbe, 0x05, 0xc2, 0xc0, 0xe7, 0x03, 0x6a, 0x2f, 0xb2, 0x2c,
  0x3b, 0xef, 0x1f, 0x02, 0x01, 0xaa, 0xf0, 0xf9, 0xcf, 0x1d, 0xfc, 0xec,
  0x18, 0x0a, 0x14, 0x22, 0x08, 0xa3, 0x20, 0xf9, 0xe9, 0xff, 0xea, 0xfe,
  0x98, 0x09, 0x19, 0x2e, 0xc1, 0x26, 0xce, 0x4b, 0x59, 0xe8, 0x12, 0xce,
  0x45, 0xed, 0x05, 0x50, 0xd4, 0xf4, 0xee, 0x10, 0x44, 0x45, 0xc5, 0x3e,
  0x1b, 0xc3, 0x21, 0x15, 0x1e, 0xa5, 0xe6, 0xc7, 0xe2, 0x18, 0xe8, 0xec,
  0x00, 0xf6, 0xb3, 0xd7, 0x35, 0x15, 0x1d, 0x03, 0xe0, 0xdf, 0xec, 0xa1,
  0xb2, 0x18, 0x14, 0xfa, 0xd8, 0x06, 0xe5, 0x0e, 0xfb, 0x20, 0xe8, 0x28,
  0x33, 0x3e, 0x10, 0x1e, 0xd4, 0xfa, 0x10, 0xd2, 0xf8, 0x25, 0xcb, 0x7f,
  0xe5, 0xe0, 0x14, 0xeb, 0x06, 0x20, 0x22, 0x45, 0xe9, 0x4d, 0x06, 0x57,
  0x1e, 0x03, 0xf8, 0x0b, 0xe5, 0xdb, 0x19, 0xf7, 0xf5, 0x3b, 0x1c, 0xe8,
  0x1a, 0xed, 0xf6, 0x0f, 0xe4, 0x07, 0xd6, 0x3e, 0xe0, 0xd2, 0xff, 0x3c,
  0xcf, 0x0a, 0xed, 0xf0, 0xf9, 0x1a, 0x1d, 0xd8, 0xf7, 0x07, 0xac, 0x0d,
  0xbd, 0x04, 0xeb, 0x45, 0xa0, 0x38, 0xf7, 0x11, 0xd1, 0x22, 0x1e, 0x22,
  0x0a, 0x33, 0x09, 0x1c, 0xf2, 0x2f, 0xed, 0xee, 0x03, 0x50, 0x1c, 0x02,
  0x07, 0xb3, 0xe7, 0x13, 0x12, 0x2d, 0xfc, 0x1e, 0xdf, 0xf7, 0xc9, 0x03,
  0x8b, 0x04, 0xb5, 0xfc, 0x17, 0xe0, 0x5c, 0xd0, 0x24, 0xc1, 0xb6, 0x39,
  0xce, 0x23, 0xe3, 0x2e, 0xa8, 0xec, 0x2a, 0x0b, 0x1c, 0xd1, 0x1d, 0xed,
  0xfd, 0xf7, 0x04, 0x1d, 0x04, 0x16, 0xbb, 0x23, 0xc9, 0x49, 0xf7, 0x00,
  0xfd, 0xbc, 0xc9, 0xfb, 0xe6, 0xe8, 0xcd, 0x1d, 0xe1, 0x25, 0x13, 0x08,
  0xf4, 0x60, 0x81, 0xd3, 0xe4, 0xe6, 0x04, 0xf1, 0x29, 0x1e, 0xc3, 0x2e,
  0xe1, 0x2e, 0x3a, 0xfc, 0x08, 0x3c, 0x0e, 0x29, 0x17, 0xfa, 0xe5, 0xd8,
  0x02, 0xfd, 0xea, 0xcd, 0x08, 0x01, 0xfd, 0xd2, 0xf3, 0xf5, 0xde, 0x35,
  0xf1, 0xdd, 0x08, 0x0f, 0x48, 0x26, 0xd3, 0x06, 0xf4, 0x0b, 0xfc, 0x05,
  0x06, 0x10, 0xdd, 0xfe, 0x08, 0xed, 0x20, 0xf0, 0xed, 0x06, 0xcd, 0xfe,
  0xb8, 0xf5, 0x08, 0x02, 0xfe, 0x1c, 0x14, 0x38, 0x07, 0xdf, 0x2d, 0xb0,
  0x05, 0xff, 0x09, 0x18, 0x0e, 0x0e, 0x07, 0xf7, 0xfe, 0xfa, 0xa5, 0xfd,
  0x2b, 0xf9, 0x0d, 0xea, 0x1c, 0xfd, 0xf9, 0xe6, 0x25, 0x18, 0xe9, 0xe3,
  0x00, 0x27, 0xe5, 0xfd, 0xe4, 0xf7, 0x0b, 0xf7, 0x2b, 0x1f, 0xe0, 0xa9,
  0xaa, 0xcd, 0xf1, 0x00, 0xe6, 0xef, 0xfa, 0x35, 0xfa, 0xfd, 0x31, 0xcf,
  0x9f, 0x10, 0x0b, 0x10, 0x31, 0x0a, 0xe5, 0x22, 0xd7, 0xb7, 0xd5, 0xf8,
  0x46, 0x09, 0x37, 0x23, 0xf3, 0x01, 0x02, 0xd6, 0x58, 0x31, 0x14, 0xa8,
  0x1e, 0x1b, 0xcd, 0xf8, 0x21, 0xd7, 0x1e, 0x30, 0x04, 0x35, 0xea, 0x81,
  0xd0, 0xc0, 0xf0, 0xb0, 0xf6, 0x1e, 0xe2, 0x1e, 0xf7, 0xf5, 0x2d, 0x14,
  0x2c, 0x10, 0xb9, 0x44, 0x1d, 0xc5, 0x18, 0x18, 0xfe, 0xdd, 0x0d, 0x06,
  0x21, 0xf7, 0x0c, 0x1f, 0xec, 0xf5, 0x0b, 0x0d, 0xed, 0xf9, 0xd5, 0x00,
  0x2e, 0x09, 0xff, 0x3e, 0x16, 0xe2, 0x00, 0x67, 0xde, 0x27, 0x48, 0xf3,
  0x04, 0xf7, 0x1b, 0xce, 0xf7, 0xd7, 0x11, 0x39, 0xd1, 0xe7, 0x29, 0x2a,
  0x21, 0xff, 0xa0, 0x22, 0x2c, 0xae, 0xfd, 0xf7, 0xfb, 0xc3, 0xfe, 0x1f,
  0xe3, 0xf7, 0x24, 0x2d, 0x36, 0x00, 0x18, 0x01, 0x3f, 0x0e, 0x1e, 0x28,
  0x1d, 0xe1, 0x02, 0x13, 0x27, 0x08, 0xd7, 0x47, 0x15, 0x1a, 0x7f, 0xdb,
  0x60, 0xdc, 0xd7, 0xf6, 0x12, 0xda, 0xf3, 0x03, 0xac, 0xf8, 0xfe, 0xf9,
  0x74, 0xea, 0x9a, 0xea, 0x26, 0xfe, 0xfd, 0x0d, 0x06, 0xd4, 0x16, 0x0e,
  0xaf, 0x38, 0x22, 0x17, 0x52, 0x0a, 0xec, 0xc9, 0x37, 0x3d, 0x2d, 0x03,
  0xee, 0xd6, 0x27, 0x34, 0x0b, 0xd5, 0xc4, 0x0e, 0xfd, 0x10, 0x42, 0xd8,
  0xf7, 0x3b, 0x3d, 0x22, 0x40, 0xe8, 0xf8, 0xdf, 0x02, 0x45, 0xa9, 0x2c,
  0x38, 0x51, 0xe4, 0x43, 0xbc, 0x0d, 0xf5, 0x59, 0xcb, 0x0a, 0xf6, 0xf6,
  0x21, 0x30, 0x37, 0x2c, 0xd6, 0xfe, 0x90, 0x3a, 0x35, 0xd8, 0xc4, 0xf3,
  0xab, 0x2e, 0xe6, 0xd1, 0xed, 0x18, 0x81, 0x22, 0x0f, 0xf1, 0xe3, 0x04,
  0x2a, 0x35, 0xe4, 0x43, 0x05, 0xe4, 0x0b, 0xc6, 0xea, 0xc9, 0xc0, 0xf2,
  0xc2, 0x45, 0x31, 0xfa, 0x02, 0x01, 0x2a, 0xfe, 0xe1, 0xfc, 0xa1, 0xbf,
  0xd9, 0xd5, 0x23, 0xd9, 0x2b, 0x04, 0x14, 0xf0, 0x21, 0x0b, 0xe0, 0xd2,
  0xd1, 0x1a, 0xc0, 0x18, 0xf2, 0xf7, 0xb1, 0x30, 0xf2, 0x0e, 0xd2, 0x0f,
  0x0d, 0xea, 0xdd, 0x37, 0xc8, 0xe6, 0xe4, 0xf6, 0x17, 0xb7, 0x29, 0xa6,
  0xdf, 0x1b, 0xf4, 0xd2, 0xfb, 0xfe, 0xfd, 0xbb, 0xec, 0xee, 0xe3, 0x2e,
  0xea, 0xbb, 0xf8, 0x0f, 0x27, 0xf3, 0xff, 0x24, 0x47, 0x2b, 0x0b, 0xc2,
  0x06, 0x49, 0xf0, 0x13, 0xc0, 0x02, 0x42, 0x0f, 0xe2, 0x34, 0xd6, 0xbf,
  0xd4, 0x4f, 0x26, 0x29, 0xf4, 0xf2, 0xb0, 0x1a, 0x15, 0xc2, 0xf9, 0xda,
  0x94, 0x3f, 0x2e, 0xf4, 0x09, 0x0d, 0x04, 0xee, 0xff, 0x47, 0x48, 0xfd,
  0xfa, 0x16, 0x2c, 0xc0, 0xd1, 0x28, 0xf2, 0x16, 0xec, 0xee, 0x17, 0xd5,
  0x5f, 0x02, 0xcb, 0x0e, 0xf6, 0xfa, 0x02, 0x25, 0x1c, 0xc9, 0xd4, 0x55,
  0xd4, 0x08, 0xd7, 0x25, 0xd6, 0xdb, 0xcf, 0x40, 0xfd, 0xce, 0x21, 0xa7,
  0xcb, 0x35, 0x0a, 0xea, 0x29, 0x0c, 0xcd, 0xff, 0xe2, 0x0d, 0x27, 0xeb,
  0xc7, 0x16, 0x51, 0xf6, 0x0e, 0xd7, 0xff, 0x26, 0xd3, 0x20, 0xef, 0xd9,
  0x3c, 0xf3, 0x9b, 0x9e, 0xf8, 0xf7, 0xe8, 0x20, 0x27, 0xf3, 0xc9, 0x28,
  0x10, 0xf6, 0x06, 0x42, 0x08, 0x0f, 0x20, 0x0e, 0x19, 0xec, 0x29, 0x02,
  0x81, 0x29, 0xe8, 0xd1, 0x1a, 0xd6, 0xe1, 0xda, 0x0d, 0xe0, 0x21, 0xfb,
  0xf4, 0x35, 0x07, 0x1c, 0x20, 0xca, 0xe6, 0x3e, 0x01, 0x2a, 0x38, 0xc4,
  0x0e, 0xff, 0xcf, 0xe1, 0x4b, 0x12, 0x19, 0x23, 0x05, 0x53, 0xed, 0x08,
  0xdf, 0xcd, 0xd4, 0xee, 0x26, 0x5e, 0xb1, 0xbb, 0x4c, 0x14, 0xf1, 0xac,
  0x8e, 0x3c, 0x52, 0xfc, 0xf6, 0xc5, 0x24, 0xbf, 0x18, 0x27, 0x3b, 0x16,
  0x0e, 0xe9, 0x02, 0x23, 0x38, 0xcc, 0x3b, 0x48, 0xfd, 0xc8, 0xef, 0xa2,
  0xf2, 0xf9, 0xff, 0xd5, 0x29, 0xfa, 0x25, 0x32, 0x07, 0x5d, 0x28, 0x3a,
  0x1c, 0x23, 0xdb, 0xef, 0xc5, 0x2e, 0xc3, 0xfd, 0x13, 0x34, 0x00, 0xd5,
  0x17, 0x27, 0x4a, 0x2f, 0xe5, 0xb3, 0x16, 0x9e, 0xe3, 0x36, 0x40, 0xec,
  0x38, 0xb8, 0x0b, 0x1a, 0x1b, 0xfd, 0x35, 0x09, 0xf5, 0x0a, 0xf7, 0xa8,
  0x1a, 0xf6, 0x0f, 0x0b, 0x0d, 0x28, 0x0b, 0x36, 0x67, 0x12, 0xf7, 0x08,
  0x22, 0x20, 0x08, 0x16, 0x81, 0x04, 0xd7, 0xfb, 0xec, 0x0b, 0x0b, 0xec,
  0x62, 0x18, 0xff, 0x1a, 0x0c, 0xfe, 0xe5, 0xf8, 0xde, 0x31, 0xec, 0xb1,
  0x35, 0xd1, 0xf8, 0x18, 0xe7, 0x03, 0xe5, 0xf9, 0xa9, 0x28, 0xf1, 0x09,
  0x51, 0x04, 0xdb, 0x07, 0x2a, 0xfd, 0xe4, 0x0e, 0x4b, 0x0a, 0xb7, 0xa5,
  0xbc, 0x16, 0xe4, 0x07, 0x2a, 0xed, 0xc6, 0xe7, 0x3e, 0xdf, 0x11, 0x27,
  0xfe, 0x34, 0x26, 0x10, 0x03, 0x05, 0x18, 0x2d, 0x81, 0x15, 0xf1, 0xf2,
  0x2b, 0x32, 0xf8, 0xac, 0x22, 0xcc, 0xf5, 0x22, 0xda, 0x07, 0x27, 0x1e,
  0xfe, 0xb0, 0x1a, 0x31, 0x21, 0x19, 0xde, 0xf9, 0xe8, 0xe8, 0xe9, 0x27,
  0xd6, 0xff, 0x18, 0x39, 0xdf, 0xd2, 0xe1, 0xef, 0x36, 0x00, 0x23, 0xf5,
  0x1c, 0x49, 0x28, 0xe1, 0x0a, 0xfd, 0xe2, 0x05, 0xd9, 0x25, 0xef, 0x0c,
  0xfa, 0x2a, 0xe9, 0xe5, 0x34, 0xac, 0xeb, 0x03, 0xbc, 0xee, 0xfb, 0xe8,
  0xe3, 0xe7, 0x21, 0x38, 0xf1, 0x0e, 0x12, 0xc3, 0xf8, 0xa6, 0x26, 0x14,
  0xaa, 0xd6, 0xff, 0xfd, 0x03, 0x1d, 0x49, 0x3e, 0x5e, 0xea, 0x22, 0xed,
  0xf3, 0x27, 0x0f, 0xcf, 0x11, 0xf5, 0x03, 0x06, 0xf1, 0x12, 0x3f, 0x25,
  0xf0, 0x33, 0x2c, 0x16, 0x25, 0xd7, 0x12, 0xf8, 0xda, 0xea, 0xf6, 0xc6,
  0xc6, 0x06, 0x10, 0x43, 0x11, 0x04, 0xf3, 0xfb, 0xfa, 0x81, 0xba, 0x07,
  0x1b, 0x27, 0xf1, 0x2f, 0x0a, 0x3b, 0xce, 0x2c, 0xab, 0x15, 0x04, 0xf1,
  0x21, 0x4e, 0x02, 0x28, 0xc8, 0xe8, 0x3e, 0x07, 0x1f, 0xf0, 0xfb, 0x11,
  0x03, 0xeb, 0x19, 0xbb, 0x16, 0x1a, 0xd8, 0x0c, 0x2f, 0x0a, 0x17, 0x38,
  0xea, 0xf4, 0x38, 0x3a, 0xed, 0xeb, 0x20, 0xe9, 0x1d, 0xd3, 0xd0, 0x0f,
  0x12, 0x04, 0xe0, 0x2c, 0x03, 0x55, 0x9a, 0x22, 0xc3, 0xe3, 0x13, 0xe7,
  0xd6, 0x15, 0xf3, 0xd0, 0xf3, 0x00, 0xf4, 0xbe, 0x05, 0xe3, 0x27, 0x1e,
  0xb2, 0x1d, 0x32, 0xe9, 0xe3, 0xe4, 0x04, 0xe5, 0x12, 0xe0, 0x54, 0x31,
  0x0d, 0x26, 0xf3, 0x0f, 0xc6, 0xc9, 0x30, 0x99, 0x17, 0x06, 0xdb, 0x17,
  0xde, 0x15, 0x1a, 0x06, 0xfa, 0xf7, 0xb8, 0x11, 0x17, 0xdb, 0x16, 0x33,
  0xa5, 0x20, 0xeb, 0xdb, 0xb9, 0x12, 0xd0, 0xe6, 0xe4, 0xea, 0x28, 0x32,
  0xbc, 0x45, 0x18, 0xeb, 0x05, 0xfe, 0xc3, 0xee, 0x25, 0xd3, 0x5e, 0x32,
  0x18, 0x1c, 0x16, 0x1a, 0xe1, 0xf8, 0x41, 0xb1, 0x81, 0xd0, 0xc5, 0x24,
  0x4a, 0xd0, 0xf2, 0xed, 0xcb, 0xbe, 0x08, 0x25, 0x30, 0xb1, 0xca, 0xe5,
  0x29, 0x3c, 0xe2, 0xed, 0xe4, 0x3a, 0x00, 0x08, 0xe6, 0xf0, 0x0a, 0x18,
  0xf9, 0x0e, 0xf2, 0x30, 0x0b, 0xfa, 0xc4, 0x26, 0x10, 0x51, 0xf4, 0xb0,
  0xd5, 0xcf, 0x31, 0x01, 0x2e, 0xfc, 0xb4, 0x08, 0x0a, 0xc0, 0x1b, 0x0b,
  0x4d, 0xf6, 0xfc, 0x03, 0xec, 0xcc, 0xd3, 0xec, 0x27, 0xe9, 0x17, 0xd7,
  0x1f, 0xf5, 0xd5, 0x1c, 0x0b, 0x0b, 0x13, 0x3c, 0xe9, 0xfb, 0xe6, 0xc6,
  0x17, 0x0c, 0xe2, 0x0e, 0xf6, 0x0b, 0xf3, 0xe1, 0x01, 0x24, 0x47, 0x14,
  0xf6, 0xe6, 0x15, 0xc7, 0x56, 0x0d, 0x81, 0x17, 0x1b, 0xff, 0xe3, 0x0f,
  0x2c, 0xcf, 0x0c, 0x25, 0xab, 0xea, 0xdf, 0x10, 0x29, 0x29, 0xed, 0x02,
  0x1c, 0x15, 0xab, 0x2a, 0x1e, 0xd8, 0x48, 0x1d, 0xff, 0x3f, 0xe5, 0x11,
  0x1b, 0x2d, 0xdb, 0xcf, 0x20, 0xd5, 0x01, 0xfe, 0xf9, 0x1f, 0x76, 0x2a,
  0xe0, 0x1f, 0x14, 0xa1, 0x17, 0x0e, 0xea, 0x24, 0xe2, 0x0a, 0xe9, 0xfb,
  0xe1, 0xe3, 0x00, 0xe5, 0xf0, 0xa0, 0xe6, 0x04, 0x12, 0xce, 0x07, 0xf6,
  0xe8, 0x14, 0x5b, 0xdb, 0x02, 0xfd, 0x29, 0x01, 0x1f, 0x25, 0xdf, 0x17,
  0x0d, 0xa2, 0x3e, 0xdc, 0xd5, 0x05, 0xfa, 0xdf, 0x5c, 0xcf, 0xae, 0x21,
  0x0b, 0x3a, 0x1a, 0x22, 0x0c, 0xf8, 0x4c, 0x19, 0xfc, 0x2f, 0xb3, 0x06,
  0x07, 0xd8, 0x0b, 0xca, 0x45, 0xe3, 0xce, 0x0f, 0x17, 0x81, 0xe3, 0x10,
  0x2d, 0xf5, 0xf9, 0xb4, 0x0a, 0xb3, 0x97, 0x08, 0xff, 0xc6, 0x0e, 0xf6,
  0xd9, 0xc2, 0x33, 0xf2, 0xfe, 0x3c, 0x0a, 0x13, 0x1e, 0xf7, 0xe6, 0x19,
  0xaa, 0xd6, 0x5b, 0x14, 0x2a, 0xf6, 0x78, 0xe4, 0x20, 0x48, 0xf2, 0x3c,
  0x27, 0xde, 0xb3, 0xef, 0xdc, 0x1e, 0x1b, 0x3c, 0x29, 0xd7, 0xfa, 0x1f,
  0x23, 0xe3, 0xbc, 0x2a, 0xfc, 0xca, 0x1d, 0x57, 0xe9, 0xb0, 0x03, 0x26,
  0xdd, 0x0a, 0x0b, 0x0a, 0x17, 0x05, 0xcf, 0x00, 0x02, 0x13, 0x15, 0x35,
  0x9d, 0xe0, 0x5b, 0x22, 0x12, 0xe3, 0x24, 0xdb, 0xc1, 0x07, 0x19, 0x23,
  0xd5, 0xb2, 0x45, 0x4d, 0x1f, 0xec, 0xd8, 0xd4, 0x6b, 0xb9, 0x0b, 0xfb,
  0xf6, 0x88, 0xca, 0x1e, 0xfb, 0xbf, 0x26, 0x13, 0xd8, 0xec, 0xf6, 0x1b,
  0x45, 0xf9, 0x12, 0xf1, 0xdd, 0xe1, 0xd9, 0x1e, 0x1c, 0x3c, 0xfa, 0xc7,
  0x08, 0x35, 0x21, 0x13, 0x41, 0xb8, 0xe9, 0x1f, 0x81, 0x2e, 0x3a, 0x36,
  0x14, 0xd9, 0x06, 0xa7, 0xf1, 0xcd, 0x00, 0x45, 0x10, 0xed, 0x05, 0x18,
  0x36, 0xcc, 0xce, 0x11, 0xf9, 0xd8, 0x17, 0x03, 0x02, 0xe5, 0xe7, 0x14,
  0x4e, 0xe6, 0x4e, 0x03, 0x19, 0xba, 0xe6, 0x0d, 0xe7, 0x57, 0x43, 0x1d,
  0xe8, 0x01, 0xed, 0x57, 0x34, 0x9a, 0xe9, 0x09, 0xc7, 0x1e, 0x27, 0x27,
  0x0b, 0x1e, 0xff, 0xec, 0x08, 0x21, 0x23, 0x32, 0xb1, 0x1f, 0x0e, 0x10,
  0x28, 0xd5, 0x98, 0x18, 0x1d, 0x04, 0xa3, 0x31, 0xe7, 0xc6, 0x17, 0x41,
  0x04, 0xe5, 0x17, 0x25, 0x13, 0xe1, 0xda, 0x07, 0x0b, 0x05, 0x2c, 0xf1,
  0xe0, 0xec, 0x4a, 0x4b, 0x3f, 0xec, 0x00, 0x28, 0xac, 0x46, 0x0a, 0x13,
  0xf6, 0xe0, 0xff, 0xff, 0x04, 0x00, 0x00, 0x00, 0x60, 0x00, 0x00, 0x00,
  0x42, 0x03, 0x00, 0x00, 0x99, 0xe4, 0xff, 0xff, 0x2a, 0xd7, 0xff, 0xff,
  0xe8, 0x04, 0x00, 0x00, 0xb4, 0x01, 0x00, 0x00, 0x3c, 0xbc, 0xff, 0xff,
  0x2e, 0xfb, 0xff, 0xff, 0x34, 0xe0, 0xff, 0xff, 0xbd, 0xf2, 0xff, 0xff,
  0x00, 0xb9, 0xff, 0xff, 0x49, 0xee, 0xff, 0xff, 0x28, 0xf4, 0xff, 0xff,
  0xbe, 0xf9, 0xff, 0xff, 0xd2, 0xf1, 0xff, 0xff, 0x4e, 0xf3, 0xff, 0xff,
  0xb7, 0xd8, 0xff, 0xff, 0x2d, 0x00, 0x00, 0x00, 0x68, 0xd6, 0xff, 0xff,
  0x47, 0xca, 0xff, 0xff, 0x38, 0xec, 0xff, 0xff, 0x76, 0xef, 0xff, 0xff,
  0xcf, 0xfd, 0xff, 0xff, 0x36, 0xf5, 0xff, 0xff, 0xae, 0xe3, 0xff, 0xff,
  0x62, 0xe1, 0xff, 0xff, 0x04, 0x00, 0x00, 0x00, 0x40, 0x14, 0x00, 0x00,
  0x42, 0xed, 0x40, 0x56, 0x2f, 0xfa, 0xfa, 0xcf, 0x0d, 0xc6, 0x0d, 0xd9,
  0xe3, 0x05, 0x0c, 0xfc, 0x51, 0x24, 0xf9, 0xd4, 0x1f, 0xf1, 0xf8, 0xec,
  0x19, 0x0d, 0x11, 0xfe, 0x19, 0x05, 0xf9, 0x09, 0xda, 0xfa, 0xc8, 0x01,
  0xbc, 0x2a, 0x30, 0xb9, 0x38, 0x2e, 0xfd, 0xbf, 0x1f, 0xcb, 0xdc, 0x33,
  0xde, 0xb2, 0xdc, 0x2e, 0xec, 0xed, 0x18, 0x31, 0xf0, 0x36, 0xe0, 0x3a,
  0xed, 0xf1, 0x3c, 0x07, 0x34, 0xcf, 0xd6, 0xf4, 0x4c, 0x05, 0x13, 0x31,
  0x52, 0xef, 0x0d, 0x43, 0x2b, 0xb1, 0xef, 0xdf, 0xfd, 0xe1, 0xf7, 0xea,
  0x01, 0xea, 0x17, 0x28, 0x19, 0x2d, 0x35, 0xd6, 0x1f, 0x18, 0x03, 0xe1,
  0x35, 0x17, 0xf1, 0x07, 0x1d, 0xcd, 0xfb, 0xfc, 0xc1, 0x0d, 0x8f, 0xed,
  0xc0, 0x0c, 0x20, 0xef, 0x03, 0x39, 0x08, 0xe2, 0x1e, 0xd7, 0x01, 0x0e,
  0x04, 0xed, 0xe1, 0x74, 0xfa, 0xfb, 0x19, 0x3d, 0xef, 0x04, 0xa4, 0x4e,
  0x12, 0xa3, 0x0e, 0x14, 0x0b, 0x12, 0xf5, 0x09, 0x0e, 0xff, 0xbb, 0xf0,
  0x68, 0xb1, 0x2b, 0x0b, 0x2a, 0x34, 0x10, 0xfe, 0xf1, 0xfa, 0xec, 0x0c,
  0x28, 0xca, 0x24, 0x2c, 0xd9, 0x2e, 0x10, 0xc3, 0x0b, 0x1e, 0xe1, 0x34,
  0x4f, 0xea, 0x0e, 0x41, 0x16, 0x04, 0xf4, 0x31, 0x2f, 0x3b, 0x94, 0x04,
  0xe0, 0xf9, 0x4e, 0x16, 0xf0, 0xd9, 0xf9, 0xb7, 0xee, 0xe8, 0x04, 0xe8,
  0x37, 0x00, 0xc0, 0x39, 0xcc, 0xeb, 0x4b, 0xf7, 0xeb, 0x18, 0xfa, 0x7f,
  0x3e, 0xe2, 0x2d, 0x17, 0xfa, 0xb4, 0xf2, 0xe3, 0x01, 0x09, 0xf3, 0xeb,
  0x47, 0x23, 0x56, 0xff, 0x27, 0xd1, 0x18, 0x05, 0x06, 0x2f, 0x7c, 0x3b,
  0xd9, 0xe2, 0xea, 0xff, 0x33, 0x03, 0x21, 0xd8, 0xc0, 0x23, 0x50, 0xe6,
  0x1d, 0xdd, 0x4e, 0x8d, 0xef, 0xc0, 0x03, 0x36, 0x11, 0xf0, 0x28, 0x41,
  0xe1, 0xea, 0xc4, 0xf7, 0x10, 0xe8, 0x25, 0x04, 0xdd, 0xfd, 0xcd, 0x0d,
  0x15, 0xdd, 0xfc, 0xa7, 0x00, 0x0a, 0x22, 0x53, 0xb3, 0xd5, 0x65, 0x7f,
  0x2d, 0xd6, 0xfc, 0x32, 0xbc, 0x0a, 0xf4, 0x1a, 0x12, 0xbf, 0xa0, 0x34,
  0xb5, 0x17, 0x27, 0xc1, 0x07, 0xca, 0xfc, 0x0f, 0x28, 0xd8, 0xf7, 0x2c,
  0xdb, 0xde, 0x0d, 0xe2, 0x58, 0xdc, 0x46, 0xd0, 0xbb, 0xd3, 0x49, 0xba,
  0xd8, 0xf2, 0x49, 0xaf, 0x21, 0xc0, 0xbf, 0x25, 0x3b, 0xd1, 0x13, 0x02,
  0xda, 0xe0, 0xfb, 0xee, 0x29, 0xdc, 0x2f, 0xee, 0xdb, 0x08, 0xca, 0x20,
  0xf1, 0x18, 0xf5, 0xde, 0x33, 0xd9, 0x13, 0x06, 0xac, 0xa5, 0x41, 0xe2,
  0xff, 0xff, 0x22, 0x0c, 0xf7, 0x03, 0x04, 0x02, 0x20, 0xf9, 0xe0, 0x26,
  0x74, 0x2a, 0x69, 0xab, 0xd8, 0xfd, 0xf0, 0x08, 0x04, 0xee, 0x59, 0x5b,
  0xc8, 0xd7, 0xd2, 0xe6, 0xdc, 0x0b, 0x3d, 0x9d, 0xa7, 0xfa, 0xf7, 0xd8,
  0x30, 0x01, 0x52, 0x18, 0x1a, 0xbf, 0xc8, 0x06, 0x46, 0x0c, 0x34, 0x30,
  0xe5, 0xb5, 0xe5, 0xed, 0xf3, 0x14, 0x1e, 0xdf, 0xc0, 0x3a, 0xc4, 0x16,
  0xee, 0x49, 0xed, 0x2d, 0x70, 0xc6, 0x47, 0x04, 0x8d, 0xe7, 0xfc, 0xf2,
  0x0c, 0xbd, 0x1a, 0xe0, 0x3c, 0xf4, 0x00, 0xfc, 0x23, 0x4d, 0x05, 0x0c,
  0xcf, 0xda, 0xdb, 0x3b, 0xd9, 0xd4, 0xdb, 0x43, 0x4e, 0xdc, 0x47, 0x16,
  0x23, 0x12, 0x16, 0x0b, 0x38, 0x23, 0x16, 0x46, 0xe7, 0xfe, 0xdc, 0xe2,
  0xe8, 0xeb, 0x12, 0x17, 0xd8, 0xfe, 0x01, 0x38, 0x31, 0xb4, 0xbc, 0xe4,
  0xc3, 0xf8, 0x1c, 0x12, 0x01, 0x27, 0x26, 0x58, 0xfc, 0xe5, 0x39, 0x0b,
  0xdc, 0xab, 0x20, 0x31, 0x15, 0xca, 0x38, 0x49, 0x7e, 0x18, 0xd8, 0x1c,
  0xbd, 0xdd, 0x02, 0x2d, 0xd7, 0x28, 0x08, 0xfa, 0x1e, 0x2b, 0x3a, 0xf4,
  0xf5, 0x17, 0xd7, 0x5d, 0x0a, 0xf4, 0xf4, 0x05, 0x2a, 0xc5, 0x02, 0x0c,
  0x27, 0xf1, 0xfb, 0xfb, 0x49, 0xf7, 0x33, 0x3d, 0x01, 0x10, 0x02, 0xdd,
  0x0d, 0x24, 0x2d, 0xe6, 0x02, 0xfb, 0xa8, 0x32, 0x13, 0xb3, 0xa2, 0xdc,
  0xd9, 0xad, 0x23, 0x24, 0xfd, 0x17, 0x32, 0x28, 0xfb, 0x0d, 0x35, 0xf7,
  0xe7, 0xd0, 0x2e, 0x31, 0x0a, 0xb6, 0x0c, 0x44, 0x11, 0x09, 0x2e, 0xfb,
  0x0a, 0xb5, 0xfb, 0xdb, 0xa9, 0xee, 0xdb, 0xdc, 0x1e, 0x4f, 0x4f, 0xf5,
  0x1e, 0xde, 0xda, 0x1d, 0x28, 0xff, 0x1a, 0x24, 0x29, 0xb7, 0xe9, 0xc9,
  0x12, 0x01, 0xf8, 0x4a, 0xf0, 0x1b, 0x42, 0x08, 0xd2, 0x3a, 0x53, 0xce,
  0xe7, 0x13, 0x20, 0xa9, 0x0b, 0x13, 0xbe, 0x27, 0x50, 0xd6, 0xb2, 0xc1,
  0x0a, 0x81, 0xfc, 0x23, 0xed, 0xef, 0x13, 0x2a, 0xe1, 0x10, 0x4a, 0xa8,
  0xca, 0x28, 0x40, 0xdc, 0x37, 0x02, 0xcb, 0x2c, 0x38, 0x20, 0xe1, 0x3d,
  0xfc, 0x87, 0x23, 0xca, 0xdf, 0xff, 0xe5, 0x19, 0x47, 0x52, 0x39, 0xd8,
  0xd9, 0x2f, 0xfa, 0x12, 0x6a, 0xdc, 0xed, 0xec, 0xcb, 0xe6, 0xf7, 0x00,
  0xfb, 0xc0, 0xce, 0x34, 0xa0, 0x1d, 0x06, 0xeb, 0x50, 0x45, 0x31, 0xa0,
  0xe7, 0x07, 0xdf, 0x3b, 0xe2, 0xd7, 0xf8, 0xc0, 0xde, 0xe6, 0xe8, 0xf9,
  0x0e, 0x0e, 0xc9, 0xfd, 0xf2, 0x18, 0x23, 0x06, 0x2c, 0xef, 0x48, 0xf7,
  0x02, 0x24, 0xcb, 0xcc, 0x50, 0xf1, 0xfe, 0xcf, 0x57, 0x33, 0xd5, 0x0d,
  0xde, 0x37, 0xcc, 0xe6, 0xc5, 0xee, 0x27, 0x12, 0xe5, 0x2c, 0x1c, 0xf0,
  0xba, 0x37, 0x01, 0x04, 0xee, 0xd6, 0xc8, 0xcc, 0x95, 0x05, 0x13, 0xda,
  0x64, 0xec, 0x41, 0x00, 0xe7, 0xf2, 0x4b, 0x1a, 0x27, 0x28, 0x4d, 0x13,
  0xb9, 0x21, 0xda, 0xf4, 0xd5, 0x18, 0xf3, 0xcc, 0xeb, 0x06, 0x13, 0xba,
  0xf0, 0x33, 0x0c, 0xe6, 0xab, 0x15, 0x3b, 0x09, 0x3a, 0x39, 0x2f, 0xe6,
  0xb1, 0x4b, 0x00, 0x2b, 0x3f, 0xff, 0x05, 0x81, 0x1f, 0xf1, 0x05, 0xe4,
  0xfc, 0x06, 0x02, 0xe0, 0xed, 0x3e, 0x42, 0xf9, 0xea, 0x5e, 0x2b, 0x36,
  0xc6, 0x32, 0x04, 0x11, 0xee, 0x0c, 0xed, 0xf1, 0xc1, 0x18, 0x2f, 0xf6,
  0x1a, 0xd5, 0x45, 0xd5, 0x3f, 0xe8, 0x21, 0x0f, 0x3c, 0x22, 0x02, 0xf8,
  0xd1, 0x37, 0xec, 0xb6, 0xfe, 0x25, 0x06, 0x02, 0xe5, 0x15, 0xc7, 0xe7,
  0xfd, 0x21, 0x23, 0x01, 0xd4, 0x04, 0x33, 0xdc, 0x1b, 0xe6, 0x11, 0x28,
  0xe3, 0x12, 0x4e, 0xf4, 0x17, 0x0a, 0xdd, 0xb1, 0x32, 0x09, 0xd4, 0xe0,
  0x18, 0xc0, 0x2b, 0xad, 0xbd, 0x40, 0x19, 0x06, 0x0c, 0x64, 0xe5, 0x42,
  0xde, 0x44, 0x04, 0x66, 0xee, 0xe5, 0xee, 0xe7, 0xe9, 0xd4, 0xe5, 0x0b,
  0xd0, 0x1b, 0x27, 0x21, 0x09, 0x14, 0xf9, 0x45, 0x16, 0xc6, 0x3f, 0xef,
  0x9f, 0x0e, 0xb4, 0x4a, 0xe4, 0x05, 0x94, 0xf3, 0x11, 0xf8, 0x06, 0x2f,
  0xb8, 0x20, 0xbf, 0x56, 0xe1, 0x04, 0x25, 0x46, 0x1f, 0xf2, 0x3d, 0xf6,
  0x81, 0xc4, 0x25, 0x0d, 0x04, 0x22, 0xaf, 0x2c, 0x15, 0x1e, 0x4f, 0xcd,
  0xce, 0xc2, 0x15, 0xee, 0x0b, 0xf9, 0x50, 0xe8, 0x8f, 0x08, 0xed, 0x1c,
  0x03, 0x1a, 0x08, 0x6d, 0xd6, 0xd3, 0xd6, 0xce, 0xd2, 0xcb, 0x24, 0x44,
  0xd2, 0x45, 0x25, 0xfd, 0x1c, 0xf5, 0x60, 0x16, 0xff, 0xe5, 0xfa, 0x20,
  0xd1, 0x0a, 0xd2, 0x07, 0xf1, 0x02, 0x05, 0xd0, 0x13, 0xff, 0xe1, 0x4e,
  0xca, 0x30, 0xfc, 0x35, 0x0c, 0xbf, 0x4f, 0x36, 0x0a, 0x18, 0x25, 0x03,
  0xd2, 0xdd, 0xe8, 0x08, 0xdd, 0x26, 0xc7, 0x4d, 0x1d, 0x20, 0x17, 0xe1,
  0xdb, 0xbf, 0x0d, 0xce, 0xf5, 0x91, 0x1d, 0x42, 0xd3, 0x20, 0x1b, 0x17,
  0xa1, 0x21, 0xf3, 0x45, 0x08, 0xf0, 0x8a, 0x30, 0xd8, 0xae, 0x1a, 0x28,
  0xe9, 0x4c, 0x15, 0x29, 0xf6, 0x14, 0x18, 0x0f, 0x19, 0xe2, 0xf6, 0x0e,
  0x9b, 0x2d, 0xe6, 0x42, 0x20, 0xf3, 0xd5, 0x15, 0x12, 0xfd, 0x24, 0x29,
  0xcd, 0x06, 0xec, 0x1c, 0xe8, 0x19, 0x42, 0x3b, 0xd3, 0xf8, 0x1f, 0x20,
  0xa5, 0x17, 0x38, 0x08, 0xbd, 0x6f, 0xd7, 0x25, 0x18, 0x02, 0x34, 0xcd,
  0xc8, 0xc1, 0xf6, 0xde, 0xe7, 0x9e, 0xfb, 0x11, 0xd9, 0xf3, 0x04, 0x59,
  0xdb, 0xc6, 0xe4, 0xd9, 0x48, 0xde, 0xfc, 0x05, 0xed, 0xf1, 0x31, 0xf2,
  0x0c, 0x27, 0x3e, 0xe6, 0xed, 0xe7, 0x04, 0x19, 0x29, 0xfa, 0x05, 0x49,
  0xd9, 0xf2, 0xea, 0x00, 0x16, 0x02, 0xe0, 0x00, 0xee, 0x15, 0x26, 0x41,
  0x4c, 0xbd, 0xef, 0x12, 0x05, 0xb8, 0x1c, 0x21, 0xc4, 0x06, 0x27, 0x12,
  0xda, 0xf4, 0x2d, 0xe3, 0x3a, 0xd5, 0xab, 0x14, 0x08, 0xc3, 0xee, 0xbe,
  0x1b, 0xd2, 0x24, 0x02, 0x25, 0x06, 0xe4, 0xf3, 0xf8, 0x39, 0xf1, 0x0c,
  0xe6, 0xea, 0xf8, 0xda, 0x0b, 0xb9, 0xd9, 0xfc, 0xf2, 0xfa, 0x13, 0x1c,
  0x0c, 0x09, 0x0b, 0xe9, 0xda, 0xec, 0x00, 0x2f, 0x2c, 0xe5, 0x2c, 0x45,
  0xe6, 0xf7, 0xf2, 0xef, 0xe5, 0xd5, 0x1e, 0x12, 0x07, 0x0f, 0x18, 0x3a,
  0xf2, 0xe4, 0x23, 0x01, 0x58, 0xe1, 0x2b, 0x14, 0xd7, 0xfc, 0x19, 0x20,
  0xd2, 0xe3, 0x3a, 0xd5, 0xf7, 0xa5, 0xed, 0x7f, 0x0e, 0x33, 0xfe, 0xc9,
  0x06, 0x0f, 0x43, 0x2c, 0x41, 0x45, 0xea, 0x31, 0xd0, 0xf1, 0xf9, 0x00,
  0x11, 0x06, 0x11, 0xe0, 0x16, 0xcc, 0x11, 0x36, 0xc2, 0x21, 0x05, 0xf5,
  0x1d, 0xe8, 0x1c, 0x30, 0x1a, 0x02, 0xfc, 0x01, 0x03, 0xdd, 0x17, 0x19,
  0xc9, 0x13, 0xe4, 0xf3, 0xc0, 0x21, 0x32, 0x2c, 0xb6, 0xef, 0x27, 0x47,
  0xe9, 0x07, 0x28, 0xff, 0xe6, 0xfb, 0x1d, 0x1b, 0xf1, 0xe7, 0xf7, 0x2d,
  0xf2, 0x02, 0xd8, 0xbe, 0x18, 0xb1, 0x23, 0x24, 0xea, 0x16, 0xd1, 0x01,
  0x2a, 0xe6, 0x0d, 0xfc, 0x37, 0x3f, 0xaf, 0x5b, 0xa9, 0x0e, 0x0b, 0x4d,
  0xaa, 0x05, 0xc0, 0x36, 0x0f, 0xe8, 0x08, 0x0e, 0xf8, 0xe9, 0x07, 0xe5,
  0x24, 0x39, 0xfd, 0x16, 0xfc, 0x16, 0x00, 0xe8, 0x07, 0x08, 0xfb, 0x19,
  0xe2, 0x0d, 0xdf, 0xdc, 0x41, 0xd6, 0x07, 0x05, 0x30, 0xdb, 0x04, 0xeb,
  0x37, 0x21, 0x7d, 0xf2, 0xe2, 0x02, 0xf0, 0x2a, 0xeb, 0xfa, 0xc4, 0x2b,
  0x17, 0x10, 0x29, 0x0d, 0x69, 0xe8, 0xbd, 0x12, 0x99, 0xa3, 0xea, 0x6c,
  0xe5, 0xf2, 0x1a, 0x0c, 0x23, 0x04, 0x6b, 0xe4, 0x87, 0xd9, 0x06, 0x20,
  0xce, 0x04, 0xc0, 0x3e, 0x0e, 0xfc, 0x07, 0x1f, 0xe7, 0xf9, 0xd2, 0xd4,
  0xf4, 0xe4, 0x7f, 0xe7, 0xef, 0x44, 0xde, 0xf1, 0xce, 0x38, 0xe6, 0x2d,
  0xe1, 0x0c, 0xbf, 0x05, 0x15, 0xb7, 0xec, 0x10, 0x24, 0x04, 0x93, 0xbe,
  0x1d, 0x28, 0x2d, 0xf3, 0xc5, 0x1d, 0x00, 0x12, 0x38, 0x02, 0xe6, 0x19,
  0xe6, 0xfa, 0xf2, 0x06, 0x2a, 0x00, 0xe0, 0x0b, 0xa2, 0xde, 0xbd, 0xfc,
  0x02, 0xd9, 0x23, 0xdd, 0x4a, 0x2b, 0x70, 0xf1, 0xab, 0xfc, 0xe3, 0x4a,
  0x41, 0xe5, 0xae, 0x24, 0xf9, 0x06, 0xfc, 0x18, 0xd8, 0xfe, 0xff, 0xed,
  0x13, 0x10, 0x51, 0xca, 0xf0, 0x56, 0xe8, 0xed, 0x02, 0x1e, 0xc8, 0x4d,
  0x34, 0x10, 0xb2, 0x25, 0xe1, 0xfd, 0x02, 0x1b, 0x1f, 0x15, 0xce, 0xfe,
  0x39, 0x18, 0x1b, 0xf4, 0x00, 0x26, 0xf1, 0xfb, 0x11, 0xe9, 0xeb, 0x0a,
  0x31, 0xeb, 0xdb, 0x34, 0x24, 0xbb, 0xf4, 0x07, 0x16, 0xf0, 0xdf, 0xf7,
  0x6b, 0x00, 0x19, 0xb9, 0x5c, 0x3f, 0x51, 0xda, 0x10, 0x45, 0x18, 0x1e,
  0xf3, 0xe2, 0xc8, 0xc5, 0x12, 0xeb, 0x1d, 0x1d, 0xe0, 0x28, 0x05, 0x02,
  0x03, 0x14, 0xe1, 0xce, 0x25, 0x12, 0x1f, 0xfa, 0x13, 0x12, 0xff, 0xf4,
  0x06, 0xde, 0xd6, 0x2b, 0xf4, 0xea, 0x0a, 0x07, 0xf3, 0x19, 0x21, 0x13,
  0x0e, 0x16, 0xd8, 0xb9, 0x27, 0xde, 0x0f, 0x2f, 0xe7, 0x33, 0xe4, 0xe1,
  0xb3, 0xb8, 0x04, 0x29, 0xe8, 0x00, 0x11, 0x15, 0x39, 0x34, 0x2a, 0x7f,
  0xd6, 0x26, 0xdf, 0xd9, 0x18, 0x07, 0x1d, 0xf9, 0x08, 0x09, 0xb9, 0x0e,
  0xcd, 0xec, 0xd1, 0xd8, 0x01, 0xe6, 0x30, 0x20, 0xeb, 0x19, 0xde, 0x08,
  0xe1, 0xe2, 0xe7, 0xf0, 0x0e, 0xed, 0x24, 0x0d, 0x00, 0x0d, 0x22, 0x2b,
  0x1b, 0xf9, 0xe5, 0x56, 0x18, 0xc0, 0xf0, 0x17, 0xfd, 0x0c, 0xf5, 0x08,
  0x12, 0x19, 0xf4, 0xc8, 0x15, 0xcd, 0x01, 0x23, 0x02, 0x27, 0x36, 0x03,
  0xf4, 0xed, 0xee, 0x25, 0x1a, 0xf8, 0x21, 0x11, 0x13, 0x00, 0x14, 0x3c,
  0xf6, 0x1c, 0xe8, 0x04, 0x26, 0x14, 0x2d, 0xf9, 0x25, 0x03, 0x0a, 0x30,
  0xe8, 0xbd, 0xeb, 0xf9, 0x09, 0xf9, 0x2f, 0x00, 0xe4, 0xf5, 0xef, 0x2f,
  0xfe, 0xe0, 0xd4, 0xed, 0xf7, 0xcb, 0xfc, 0xf6, 0xf9, 0xfb, 0x22, 0x18,
  0xed, 0x01, 0xf8, 0x20, 0x10, 0xe5, 0x37, 0x0f, 0x01, 0x19, 0xfd, 0x14,
  0x29, 0x01, 0xe3, 0xe7, 0x14, 0xfb, 0x11, 0xf3, 0xd7, 0x01, 0x1a, 0x1d,
  0xf8, 0x01, 0xa7, 0xda, 0xf5, 0x04, 0x3b, 0x00, 0xd9, 0xf2, 0x32, 0x2a,
  0x1a, 0x23, 0xf2, 0x0a, 0x2a, 0x03, 0x21, 0x24, 0x40, 0xd2, 0x16, 0x2a,
  0xd4, 0x15, 0x0f, 0x27, 0xed, 0xee, 0x28, 0x16, 0x10, 0x3f, 0xf8, 0xec,
  0xf3, 0xf1, 0xef, 0xed, 0xf7, 0xcc, 0xf3, 0xe6, 0x3a, 0x09, 0x87, 0xe5,
  0xd0, 0xf6, 0x18, 0x01, 0x07, 0xd3, 0xd3, 0x40, 0x1c, 0x2f, 0x00, 0x00,
  0x13, 0xfa, 0x05, 0xe0, 0x1c, 0xdd, 0xdd, 0x25, 0x22, 0x2a, 0xc2, 0xf0,
  0xdd, 0x23, 0xff, 0x19, 0x2f, 0xf4, 0xca, 0x41, 0xcf, 0x06, 0xdd, 0x00,
  0x0e, 0xc5, 0xed, 0x2b, 0xe8, 0xaf, 0x54, 0xdf, 0x3d, 0x05, 0xdb, 0x4f,
  0xee, 0x28, 0x28, 0x36, 0x11, 0xdf, 0xff, 0xeb, 0x07, 0x22, 0x12, 0xc4,
  0xe4, 0x08, 0x06, 0x13, 0xec, 0xe6, 0xf0, 0xdc, 0x20, 0x2c, 0x9f, 0x03,
  0xfa, 0x22, 0xf4, 0x29, 0x0c, 0xdd, 0x11, 0x00, 0x35, 0x1f, 0x08, 0xb8,
  0xec, 0xd2, 0xe7, 0x03, 0x1f, 0xe8, 0x03, 0x1f, 0x28, 0x5b, 0xc4, 0xc9,
  0xe5, 0x2f, 0x0d, 0x40, 0x17, 0xd8, 0x16, 0x3c, 0xf5, 0xcd, 0xc5, 0x0c,
  0xe6, 0xd9, 0x19, 0xfe, 0xe9, 0xcf, 0x60, 0xe9, 0xf7, 0x23, 0xd0, 0x1b,
  0xbe, 0x16, 0x04, 0x2f, 0x0b, 0xcf, 0x3a, 0xe5, 0x3b, 0x19, 0x18, 0x81,
  0xff, 0x26, 0x0a, 0x08, 0x02, 0x0a, 0xcf, 0x4b, 0x2b, 0xe6, 0xd2, 0x16,
  0xdb, 0x33, 0xf6, 0x15, 0x07, 0xc8, 0x2e, 0xdd, 0x3c, 0x2f, 0xe9, 0xba,
  0x1a, 0x0b, 0xe2, 0xee, 0x01, 0x07, 0xdc, 0x5a, 0x36, 0xf2, 0xed, 0xc6,
  0xe6, 0x3c, 0xfa, 0x06, 0x05, 0x03, 0x30, 0x0d, 0x2c, 0xe7, 0xfb, 0xa3,
  0x0c, 0xff, 0xf7, 0x0f, 0xf7, 0xd3, 0xe8, 0x16, 0x0c, 0xc8, 0x28, 0x41,
  0xd3, 0x25, 0xc3, 0xda, 0x1b, 0xdf, 0x0a, 0x0d, 0xe0, 0x21, 0x3d, 0x00,
  0x33, 0x3a, 0x1a, 0x01, 0xd1, 0xc9, 0xea, 0xf4, 0x0a, 0xc6, 0xf5, 0x2a,
  0xdf, 0x31, 0x06, 0xf5, 0x3b, 0xc1, 0xda, 0x05, 0xf4, 0x1d, 0x09, 0xd0,
  0x06, 0xe7, 0x00, 0xea, 0x17, 0x1b, 0xc4, 0xc4, 0xec, 0xde, 0xe9, 0xf2,
  0xd3, 0x3c, 0x32, 0x27, 0x15, 0xdd, 0xd6, 0x38, 0x7f, 0x1f, 0xd2, 0x37,
  0xee, 0xcd, 0x1f, 0x1a, 0x21, 0x5c, 0x01, 0xa8, 0xbe, 0xe1, 0xcd, 0x3e,
  0x05, 0x18, 0xd6, 0xf6, 0x4e, 0xd9, 0x04, 0x0d, 0xed, 0x01, 0xdf, 0x18,
  0xf6, 0x43, 0xdc, 0x27, 0x04, 0xd2, 0x17, 0x0a, 0x22, 0xc7, 0xde, 0x00,
  0xf6, 0x19, 0x05, 0x13, 0x26, 0xc0, 0x19, 0xd9, 0xdb, 0x1b, 0xce, 0xd8,
  0xe4, 0x05, 0x14, 0x16, 0x6d, 0xf2, 0xcf, 0x08, 0xf4, 0xf6, 0xf2, 0xdd,
  0xca, 0x38, 0x59, 0xe4, 0x2c, 0xc9, 0x06, 0x1d, 0x3a, 0x0e, 0xbb, 0x20,
  0x1a, 0xd4, 0xd9, 0x09, 0x35, 0x68, 0x10, 0xbc, 0x06, 0xd1, 0xa4, 0x21,
  0x02, 0x1a, 0x02, 0xfb, 0x59, 0x08, 0x25, 0x18, 0x1a, 0xf0, 0xee, 0x35,
  0x30, 0x33, 0xd6, 0xf3, 0x45, 0xd2, 0xfb, 0x08, 0xde, 0xd9, 0xea, 0xf4,
  0x08, 0x1a, 0x35, 0xec, 0x20, 0xbc, 0xde, 0xa4, 0xd7, 0xfd, 0xcd, 0x0a,
  0xe7, 0xfd, 0x17, 0x34, 0x45, 0xec, 0xcf, 0x14, 0x3d, 0x02, 0xfc, 0x02,
  0xcc, 0x19, 0x72, 0xd0, 0x01, 0xc1, 0xf8, 0x29, 0x45, 0xdc, 0x0a, 0x53,
  0x23, 0xb9, 0x3b, 0x47, 0xfe, 0x56, 0xeb, 0xf4, 0x4f, 0x0c, 0xb6, 0x2b,
  0xf5, 0xeb, 0x04, 0x26, 0x12, 0xe3, 0x38, 0xd3, 0x0b, 0xf2, 0x1f, 0xee,
  0xf7, 0x6b, 0xb1, 0xe8, 0x04, 0x03, 0xf5, 0xf1, 0x0e, 0x41, 0xcb, 0x58,
  0x03, 0x1d, 0xf0, 0xee, 0x0e, 0x09, 0x47, 0xe8, 0x05, 0x21, 0x0d, 0xf2,
  0xc8, 0x12, 0xab, 0xc7, 0xd9, 0xe4, 0x46, 0xf0, 0x14, 0x10, 0xb0, 0x21,
  0xab, 0x22, 0xd9, 0xcd, 0x07, 0x35, 0xfe, 0x08, 0x15, 0xec, 0x0d, 0xd2,
  0x81, 0x63, 0x40, 0xfc, 0x41, 0x9e, 0x37, 0x40, 0x67, 0xd1, 0xcf, 0x5d,
  0xef, 0xf5, 0xdc, 0x00, 0xda, 0xdc, 0x16, 0xfe, 0x58, 0x09, 0x0c, 0x12,
  0xe1, 0x53, 0xea, 0xbe, 0xc2, 0x2d, 0x54, 0xef, 0xe9, 0x17, 0xea, 0x25,
  0xf0, 0x18, 0x1d, 0xbf, 0xfb, 0x00, 0x2c, 0xf7, 0x1a, 0x1c, 0x06, 0x25,
  0xfb, 0xf6, 0xd8, 0xf7, 0xfc, 0x4a, 0xe6, 0xa6, 0xfc, 0x34, 0xe4, 0x19,
  0xed, 0xc0, 0xbf, 0x91, 0xde, 0xb9, 0xf3, 0xf6, 0x1a, 0xf7, 0x12, 0xc7,
  0xc4, 0x35, 0xe1, 0xd8, 0xf4, 0xd9, 0xfd, 0x01, 0x0a, 0xd2, 0x24, 0x5a,
  0x2f, 0xd1, 0xc1, 0xf8, 0xeb, 0xf7, 0x1f, 0x09, 0x47, 0x0d, 0xc0, 0x31,
  0xe2, 0x26, 0xa8, 0xea, 0xbf, 0x4a, 0x38, 0xea, 0xff, 0xe3, 0x11, 0x34,
  0x23, 0x48, 0x1f, 0xc1, 0x42, 0xd1, 0xff, 0xd4, 0x45, 0x15, 0x1f, 0x5e,
  0x24, 0x06, 0x20, 0xe1, 0xef, 0x57, 0xfc, 0xb9, 0x0e, 0x19, 0x13, 0xfa,
  0xff, 0xc0, 0xcc, 0xa7, 0x50, 0xc3, 0x0c, 0x0f, 0xd8, 0xdb, 0x5f, 0x3b,
  0xe6, 0xfa, 0x03, 0xe9, 0x2b, 0xfd, 0x25, 0xed, 0xcd, 0xe6, 0x53, 0x56,
  0x19, 0x59, 0xe2, 0x0a, 0xa8, 0xd3, 0x07, 0xbf, 0xe5, 0xf2, 0xed, 0x2e,
  0x20, 0xf4, 0x34, 0x0b, 0x0f, 0xb6, 0xde, 0x2b, 0x0a, 0xf3, 0xfa, 0xf6,
  0xcf, 0x04, 0x5d, 0x1a, 0xde, 0xd4, 0xfb, 0x0b, 0xf1, 0xf4, 0xe6, 0xe1,
  0x11, 0xff, 0x17, 0x35, 0x06, 0x81, 0x05, 0x42, 0x18, 0xd4, 0x1c, 0x07,
  0x12, 0x1a, 0x45, 0x17, 0xe1, 0xf5, 0x11, 0x42, 0x8b, 0xde, 0x2c, 0x07,
  0xf5, 0x24, 0xe8, 0x49, 0xf8, 0x32, 0x23, 0x51, 0x0f, 0x00, 0xf2, 0xe8,
  0x2d, 0x1f, 0x0a, 0x21, 0xd9, 0xf6, 0x3b, 0xcc, 0xb4, 0x06, 0xe2, 0x59,
  0x26, 0xf2, 0x18, 0xff, 0x10, 0xd1, 0xc9, 0x22, 0x32, 0x05, 0xee, 0x1a,
  0xd0, 0xf0, 0x10, 0x24, 0xc5, 0x01, 0x34, 0x16, 0xf1, 0xe7, 0xe4, 0x38,
  0x08, 0xf0, 0xee, 0xde, 0x08, 0xb6, 0x33, 0x14, 0x16, 0xea, 0x11, 0x23,
  0x0c, 0xd7, 0x2d, 0xff, 0xd1, 0xf4, 0xff, 0x0c, 0xdc, 0xbc, 0x1d, 0x1a,
  0x01, 0xc2, 0x27, 0x12, 0xfd, 0xc7, 0x2e, 0x7e, 0x0d, 0x15, 0x15, 0x1c,
  0x0c, 0xf5, 0xfe, 0x1c, 0xfa, 0x10, 0x36, 0xcb, 0xc1, 0x0e, 0xf0, 0x1f,
  0x05, 0xf6, 0x11, 0x28, 0xfc, 0xee, 0xed, 0xfd, 0x45, 0xd0, 0xd2, 0x19,
  0xbe, 0x01, 0xff, 0x14, 0xc7, 0x18, 0x2d, 0xf3, 0xfd, 0x0d, 0x16, 0x28,
  0x07, 0xde, 0x0d, 0xec, 0x18, 0xec, 0x0c, 0xd4, 0x22, 0xf3, 0xd5, 0x45,
  0xd4, 0xd9, 0x22, 0xf9, 0xcd, 0xe5, 0x0b, 0x11, 0x17, 0xa3, 0xc7, 0xf9,
  0x03, 0x85, 0x18, 0xce, 0x17, 0x05, 0x42, 0x71, 0xf7, 0x27, 0x1a, 0x2f,
  0xec, 0x11, 0x0e, 0xef, 0x2f, 0xb0, 0x4c, 0xc9, 0x2c, 0xe3, 0x56, 0x4d,
  0x6b, 0xf7, 0x03, 0xed, 0xdd, 0xd1, 0xdf, 0xf7, 0x13, 0xe3, 0xc5, 0xa4,
  0xef, 0xfb, 0x5d, 0x35, 0x17, 0xfd, 0x15, 0x8b, 0xd6, 0xe1, 0xbc, 0x31,
  0x14, 0x05, 0x27, 0xe4, 0xd0, 0x02, 0x01, 0xc0, 0x29, 0x04, 0xed, 0xc6,
  0x09, 0xbf, 0x14, 0x34, 0x15, 0x04, 0x67, 0x0d, 0x48, 0xe3, 0xd5, 0x0f,
  0xf3, 0x35, 0xce, 0x15, 0xb6, 0x7f, 0x1b, 0x2b, 0x01, 0x47, 0x8b, 0x2e,
  0x0e, 0x01, 0xee, 0x09, 0xf6, 0xc9, 0x6e, 0xc5, 0x4d, 0xbe, 0xd9, 0x71,
  0x30, 0xfd, 0x1d, 0xbc, 0xcd, 0xc3, 0xda, 0xdd, 0xf4, 0xe0, 0x21, 0x05,
  0xdd, 0xcb, 0x48, 0x52, 0x03, 0xfa, 0x14, 0xae, 0xc8, 0x2f, 0xee, 0x5f,
  0x03, 0x04, 0x3a, 0x0b, 0xaa, 0xdf, 0xfd, 0xf4, 0xef, 0x0c, 0x05, 0xd5,
  0xe5, 0xa5, 0x22, 0x30, 0xf0, 0xbe, 0x6a, 0x06, 0x13, 0xe8, 0xf2, 0x21,
  0xbb, 0x23, 0x18, 0x5c, 0x9c, 0x63, 0x00, 0x49, 0x10, 0x19, 0xb7, 0x26,
  0x2e, 0x25, 0xcd, 0xed, 0x1a, 0xf3, 0x0f, 0xfc, 0x04, 0x06, 0x98, 0x58,
  0x24, 0x01, 0x37, 0xbd, 0xb3, 0xf0, 0xeb, 0xe5, 0x20, 0x26, 0xb1, 0x05,
  0xdd, 0xf0, 0x0f, 0x49, 0x34, 0x20, 0xf4, 0xb5, 0xfb, 0x24, 0xf6, 0x2f,
  0x3c, 0xd0, 0x0e, 0xf8, 0xbf, 0xd0, 0x0f, 0xd5, 0x19, 0x1b, 0x01, 0xed,
  0x06, 0xe3, 0x02, 0x59, 0x2d, 0xc2, 0x61, 0x21, 0x20, 0xdc, 0xf8, 0x2f,
  0x16, 0x0c, 0x38, 0x3e, 0xb8, 0x61, 0x0b, 0x40, 0xdf, 0x1f, 0xfd, 0x0f,
  0xf8, 0x63, 0x1a, 0x16, 0x42, 0xe2, 0xf3, 0xec, 0xec, 0x23, 0xae, 0xc0,
  0x0d, 0x30, 0xdf, 0xfa, 0xea, 0x0b, 0xcf, 0xc6, 0x24, 0x68, 0xe7, 0xf5,
  0xd4, 0x3d, 0x35, 0x14, 0xef, 0xf2, 0xe6, 0x2a, 0xf2, 0x45, 0xb4, 0xfa,
  0x18, 0xcd, 0x23, 0x00, 0x3e, 0xd3, 0xd5, 0xce, 0x19, 0x3e, 0x15, 0x1d,
  0xcb, 0xfb, 0xf5, 0x1a, 0xbd, 0x07, 0xf5, 0x1c, 0x02, 0x23, 0xeb, 0x46,
  0x0c, 0x12, 0xc8, 0x37, 0xfa, 0xc1, 0x18, 0x03, 0x47, 0x07, 0x1d, 0x0f,
  0xdd, 0x27, 0x13, 0xd1, 0x06, 0xc7, 0x10, 0xf6, 0xb8, 0x29, 0xcd, 0xdd,
  0xe0, 0x21, 0x25, 0xb5, 0x2e, 0xc6, 0x03, 0xe2, 0x1b, 0x03, 0xe4, 0x39,
  0x12, 0x22, 0x31, 0xf1, 0x22, 0xe5, 0xd0, 0x4d, 0xf8, 0x18, 0xb9, 0xce,
  0x10, 0xf1, 0x30, 0xc4, 0x13, 0xeb, 0xf9, 0xe6, 0x21, 0x34, 0xfa, 0xf8,
  0xec, 0x1b, 0xe5, 0x1a, 0xee, 0x0d, 0xfc, 0x31, 0xd2, 0x02, 0xef, 0x3e,
  0xde, 0x33, 0xc8, 0xf6, 0x06, 0xf5, 0x05, 0xd6, 0x35, 0x35, 0x2d, 0x04,
  0x28, 0x7f, 0x11, 0xf5, 0x09, 0xf4, 0x19, 0x07, 0xc4, 0x32, 0x0d, 0xe5,
  0xd0, 0x10, 0x02, 0xba, 0x26, 0xc3, 0xf3, 0xb8, 0x1a, 0x0d, 0x0e, 0x21,
  0x22, 0x21, 0x05, 0xd6, 0xf2, 0x0b, 0xda, 0x39, 0x2f, 0x19, 0xd8, 0xf7,
  0x06, 0x08, 0x01, 0xbf, 0xfe, 0xf1, 0xd2, 0xdd, 0x09, 0x30, 0x35, 0x20,
  0xcf, 0xfc, 0xed, 0x10, 0xbe, 0x1d, 0x09, 0x1d, 0xc5, 0xee, 0xdc, 0xf9,
  0xbe, 0x47, 0x90, 0x26, 0x1c, 0x0f, 0x27, 0x03, 0x17, 0x28, 0x14, 0x4f,
  0xd6, 0xfd, 0xca, 0x1d, 0xda, 0x8f, 0x8b, 0x3c, 0xcb, 0xf2, 0xde, 0x74,
  0x48, 0xf0, 0xe1, 0x17, 0xed, 0x27, 0x26, 0x28, 0xf1, 0x14, 0x1e, 0xb6,
  0x14, 0xec, 0x00, 0xf0, 0x35, 0xa1, 0xaa, 0x12, 0xe6, 0x08, 0xe3, 0xe1,
  0x08, 0xf2, 0x0d, 0xd4, 0x05, 0x1e, 0x53, 0xe9, 0x39, 0x0e, 0xf1, 0xb7,
  0x29, 0xe0, 0x2a, 0xf7, 0x10, 0x10, 0xc2, 0xfa, 0xce, 0x1a, 0xec, 0xb3,
  0x58, 0xe9, 0xe2, 0x2b, 0x0f, 0x2a, 0x2d, 0xac, 0x4a, 0x2f, 0xe9, 0xdb,
  0x16, 0x30, 0x1a, 0x5f, 0xf6, 0xa2, 0xa9, 0xff, 0xe2, 0x08, 0x01, 0x0f,
  0xef, 0xdd, 0xcf, 0xee, 0x4f, 0x25, 0x1b, 0x0b, 0x26, 0xf3, 0xe9, 0xdf,
  0x14, 0xf9, 0x09, 0xdf, 0x03, 0xbb, 0xb8, 0x41, 0xcf, 0x14, 0xf0, 0xcf,
  0xf3, 0x03, 0x31, 0x00, 0x28, 0x11, 0x46, 0xbc, 0x14, 0x1f, 0x14, 0xeb,
  0x1f, 0xd9, 0x27, 0xc2, 0x19, 0xfc, 0xdf, 0x1e, 0xef, 0x1e, 0x02, 0x97,
  0x30, 0x3c, 0x14, 0xff, 0x1b, 0xf2, 0x0c, 0xe5, 0x2a, 0x26, 0x12, 0xd9,
  0x0e, 0x17, 0x04, 0x54, 0xdc, 0xd8, 0xd8, 0x0f, 0x0f, 0xd3, 0x06, 0xed,
  0x33, 0xeb, 0xb9, 0xf7, 0x3e, 0x74, 0x19, 0x12, 0x02, 0xf6, 0x20, 0xe9,
  0xf4, 0xff, 0xdb, 0xf0, 0x1f, 0xba, 0xf3, 0x36, 0x1b, 0x01, 0x20, 0xdc,
  0x07, 0xdb, 0x05, 0x04, 0x1a, 0x48, 0x2e, 0xcb, 0x16, 0xfb, 0x36, 0xca,
  0x1f, 0xe2, 0x31, 0xbd, 0x24, 0xc8, 0x08, 0x0c, 0xec, 0x1e, 0x10, 0x81,
  0x45, 0xf4, 0xbb, 0xfd, 0x55, 0x6f, 0x12, 0xfd, 0x76, 0x3e, 0xfd, 0xd8,
  0x0e, 0x2d, 0xf5, 0xf3, 0x28, 0xe9, 0xc2, 0x38, 0x1c, 0x0f, 0x2d, 0xe3,
  0x55, 0x14, 0x0c, 0xc7, 0x25, 0x04, 0xfc, 0xdc, 0x17, 0x00, 0xe9, 0x1f,
  0x0f, 0x1b, 0xf5, 0x0a, 0xf9, 0xe7, 0xfe, 0x09, 0xe4, 0xd3, 0x16, 0x0b,
  0x2b, 0x0c, 0x26, 0xcc, 0x11, 0x24, 0x2b, 0xe1, 0xd8, 0xbb, 0x37, 0xec,
  0x05, 0x12, 0xd7, 0x03, 0x13, 0x05, 0x11, 0xf9, 0x45, 0x12, 0x04, 0x9d,
  0x26, 0x22, 0xf2, 0xcb, 0x19, 0xd4, 0x03, 0x43, 0xb6, 0xa5, 0xf0, 0xf2,
  0x0f, 0x19, 0x16, 0xfa, 0x0b, 0xee, 0xc9, 0x10, 0x12, 0x13, 0x07, 0xed,
  0x1a, 0x03, 0x12, 0xd5, 0x34, 0xec, 0x07, 0x00, 0x05, 0x2b, 0xff, 0x04,
  0x1a, 0x1f, 0xde, 0x07, 0xf1, 0xf5, 0x05, 0x0e, 0xf1, 0xe4, 0x17, 0x03,
  0x23, 0x10, 0x0e, 0xff, 0x19, 0x00, 0x02, 0x06, 0x05, 0xe3, 0x18, 0xdc,
  0x0b, 0x10, 0xcb, 0xd4, 0xe5, 0x2e, 0x0e, 0x14, 0x38, 0x0a, 0x0b, 0xca,
  0x22, 0x4a, 0xfc, 0x26, 0x27, 0xbd, 0x23, 0x2d, 0xdd, 0xee, 0x18, 0x0d,
  0xf8, 0x18, 0xf8, 0x12, 0xd4, 0xf0, 0xd9, 0x1b, 0xfa, 0xd1, 0xfd, 0x26,
  0x23, 0x29, 0x0a, 0xf5, 0xe7, 0xe4, 0x00, 0x05, 0x2f, 0x0e, 0x16, 0x05,
  0x02, 0x09, 0xec, 0x0f, 0xdf, 0x11, 0xe6, 0xe6, 0xf3, 0x07, 0x18, 0xf7,
  0x5f, 0x0f, 0xd8, 0xf5, 0xec, 0xcd, 0xec, 0x2c, 0x1c, 0xec, 0x0d, 0xe9,
  0x03, 0x1c, 0xae, 0x0d, 0xdf, 0x16, 0x04, 0xf6, 0x23, 0x0b, 0x21, 0xb6,
  0x30, 0x21, 0x0d, 0xfb, 0x24, 0xe4, 0xef, 0xfe, 0xde, 0xce, 0x7f, 0x02,
  0xdf, 0x25, 0x1a, 0x01, 0xe0, 0xaf, 0x08, 0xf4, 0xfc, 0x1b, 0x30, 0x03,
  0xe1, 0x25, 0x01, 0x25, 0xfd, 0x06, 0x02, 0xfa, 0x21, 0x11, 0xdd, 0x07,
  0xe6, 0xff, 0x03, 0xec, 0xdf, 0xa4, 0xe9, 0xfe, 0x15, 0xe2, 0x0f, 0x31,
  0xeb, 0x30, 0x16, 0x2e, 0xf1, 0x16, 0xee, 0xfa, 0x15, 0xcc, 0xe2, 0x20,
  0xf9, 0x0b, 0xba, 0x29, 0xcf, 0x81, 0xf5, 0xe8, 0xe4, 0xf2, 0x30, 0x0b,
  0x1e, 0x03, 0xde, 0x19, 0xf7, 0x3a, 0x0e, 0x0a, 0xfe, 0x0a, 0x23, 0x36,
  0xf8, 0x2f, 0x24, 0x14, 0xfa, 0xd9, 0x01, 0xda, 0x07, 0xdf, 0xeb, 0xe4,
  0xda, 0x62, 0x0f, 0x3e, 0xf0, 0x17, 0xfd, 0x05, 0x11, 0xe6, 0xd4, 0xf5,
  0xe5, 0x1e, 0x2c, 0xe8, 0xe0, 0xd4, 0xea, 0x0d, 0x04, 0xcd, 0x01, 0x1d,
  0xe5, 0x2f, 0xdb, 0x23, 0xf0, 0x2b, 0xee, 0x00, 0xf2, 0xf8, 0xe7, 0x22,
  0x0f, 0x1a, 0xe5, 0x04, 0xf3, 0x81, 0xf1, 0x2d, 0xe7, 0xf8, 0xfc, 0x32,
  0xea, 0x06, 0xb8, 0x0f, 0x22, 0x25, 0x0f, 0x3b, 0xce, 0x3b, 0x28, 0x3b,
  0xf2, 0x3b, 0x1a, 0x34, 0xef, 0xf9, 0xf0, 0xcf, 0xe5, 0xe5, 0xf8, 0xfc,
  0xee, 0x3e, 0x20, 0x0c, 0xf9, 0x0c, 0xe3, 0x04, 0x26, 0xd0, 0xd6, 0x09,
  0x04, 0x0f, 0x25, 0xd7, 0xe6, 0x14, 0xd4, 0x03, 0xf5, 0xbf, 0x01, 0x26,
  0xfc, 0x28, 0x01, 0x35, 0xf0, 0x03, 0x09, 0xfa, 0xfc, 0x07, 0xf1, 0x12,
  0x0d, 0x14, 0x01, 0xe9, 0xda, 0xd8, 0xfa, 0x37, 0xe6, 0x06, 0xff, 0x3b,
  0xf1, 0xfe, 0xe0, 0x09, 0x04, 0x0f, 0x03, 0x32, 0xfb, 0x4a, 0x1c, 0x2c,
  0xe2, 0x2f, 0xea, 0xec, 0x13, 0xf5, 0x05, 0x23, 0x1b, 0xec, 0x02, 0xed,
  0x35, 0x0d, 0x01, 0xf3, 0xeb, 0xfc, 0x2a, 0xe7, 0x13, 0x2f, 0xe5, 0x17,
  0x03, 0xfd, 0xf2, 0xe2, 0x02, 0xce, 0xdf, 0xec, 0x0a, 0x04, 0xde, 0xfd,
  0xf6, 0xf1, 0xd7, 0x04, 0x03, 0xf0, 0x2f, 0x01, 0x1c, 0x30, 0xfe, 0x21,
  0xd7, 0x03, 0x13, 0x00, 0x0b, 0xe4, 0xff, 0x04, 0x0e, 0xb6, 0x1a, 0x59,
  0x17, 0xe6, 0x13, 0x16, 0xcf, 0xdb, 0x1b, 0x0d, 0xed, 0x23, 0xf5, 0x24,
  0xd8, 0x06, 0x08, 0xe8, 0x15, 0xeb, 0xef, 0x0d, 0xfb, 0xe3, 0xe7, 0xe9,
  0x02, 0x12, 0xf3, 0xc2, 0xef, 0x19, 0x30, 0xe9, 0xf6, 0x0e, 0x08, 0x09,
  0x11, 0x24, 0x0b, 0x00, 0xfb, 0xe8, 0xe2, 0x0a, 0x2c, 0xed, 0xd8, 0xff,
  0xf7, 0x09, 0xe9, 0xf3, 0xfa, 0x0e, 0x34, 0x1b, 0x0a, 0x21, 0x14, 0x01,
  0x0c, 0xf0, 0x30, 0xf1, 0x0e, 0x19, 0xe1, 0xcc, 0x02, 0x81, 0xff, 0x49,
  0x28, 0xd6, 0x00, 0xee, 0xfb, 0x19, 0x2d, 0xfb, 0x0f, 0x20, 0x06, 0x23,
  0x02, 0x02, 0x22, 0xe4, 0x10, 0x04, 0x09, 0xf7, 0x29, 0xc7, 0xd2, 0x1c,
  0x36, 0xe1, 0xe2, 0xd4, 0x0c, 0x19, 0x3d, 0xd7, 0xd1, 0x1e, 0x11, 0xde,
  0x09, 0xef, 0xff, 0xdc, 0xe9, 0xf5, 0xef, 0xf4, 0x19, 0xff, 0xf4, 0x2f,
  0xd4, 0xf5, 0xe0, 0xd1, 0xe6, 0x00, 0x3c, 0x10, 0xba, 0x2d, 0x1a, 0x18,
  0x24, 0xeb, 0xfd, 0xf6, 0xf5, 0x20, 0xf1, 0xf0, 0xf5, 0xb9, 0xfe, 0x41,
  0xf5, 0xd4, 0xf7, 0x21, 0xc0, 0xcc, 0x4e, 0xf3, 0xfe, 0x2d, 0xf9, 0x19,
  0xc3, 0x27, 0xfb, 0x09, 0xdb, 0xd3, 0xe4, 0x54, 0x10, 0x20, 0x41, 0x08,
  0xd8, 0x2e, 0x08, 0xfc, 0x94, 0x57, 0xce, 0x30, 0x05, 0xda, 0xbf, 0x00,
  0x2a, 0xe9, 0x49, 0x07, 0xb3, 0x23, 0xe3, 0xfa, 0x0b, 0x30, 0xe6, 0x22,
  0x35, 0x1a, 0xff, 0xf4, 0x07, 0x39, 0x03, 0x23, 0xef, 0x0d, 0x0c, 0xc6,
  0xdd, 0x27, 0xc8, 0x5b, 0xdb, 0x1b, 0x29, 0xe1, 0x19, 0x1f, 0x2d, 0xad,
  0xf4, 0xca, 0xdf, 0xd8, 0x42, 0xe5, 0x81, 0xe5, 0x56, 0xd3, 0xe4, 0xd2,
  0x2c, 0x16, 0x0e, 0x2f, 0xed, 0xc7, 0x23, 0x15, 0x13, 0x13, 0xdb, 0xf8,
  0x0d, 0x34, 0xd4, 0x2a, 0x11, 0x4f, 0xc6, 0x0b, 0x05, 0x18, 0x32, 0xce,
  0x17, 0xeb, 0x14, 0xe9, 0x9f, 0x1b, 0xa7, 0xe8, 0xf0, 0xe7, 0xfd, 0x23,
  0x17, 0xd8, 0xc8, 0x0a, 0x16, 0x15, 0xd4, 0xfd, 0xee, 0x05, 0x2e, 0x22,
  0xf0, 0x66, 0xd8, 0x4e, 0xfe, 0xf2, 0x61, 0x00, 0x1e, 0x14, 0xe7, 0xa6,
  0x1d, 0xdd, 0xca, 0x03, 0x28, 0xb5, 0xd7, 0xb1, 0x33, 0xd2, 0x26, 0x5a,
  0x02, 0xaf, 0x3b, 0x56, 0xd0, 0x20, 0x17, 0xe8, 0xeb, 0xf1, 0xf8, 0x12,
  0x06, 0xf7, 0x13, 0x4f, 0x56, 0x1b, 0xb0, 0xf5, 0xd3, 0x1f, 0x72, 0x11,
  0xf8, 0x0c, 0x01, 0xe2, 0x24, 0xdb, 0xee, 0xe7, 0x20, 0xe9, 0x12, 0xf9,
  0x40, 0xaf, 0xe3, 0x65, 0xe1, 0xd6, 0xc7, 0xf7, 0xef, 0x0d, 0x1a, 0x05,
  0xb4, 0x75, 0xff, 0x4d, 0x1d, 0xe5, 0x20, 0x49, 0x1c, 0xe4, 0x07, 0xc0,
  0x06, 0xf8, 0x65, 0x37, 0xf9, 0xab, 0x17, 0xb9, 0xec, 0xc8, 0x0c, 0x32,
  0x05, 0x24, 0xf5, 0xf2, 0x18, 0xce, 0x09, 0x10, 0x02, 0x1c, 0x03, 0xf0,
  0x08, 0xfa, 0x11, 0xbc, 0x2a, 0xe9, 0x17, 0xfd, 0x27, 0xfa, 0x32, 0x26,
  0xeb, 0x17, 0xf0, 0x06, 0xf9, 0xfc, 0x01, 0xe2, 0x0b, 0xe1, 0xee, 0xdc,
  0x08, 0xf3, 0x1f, 0xe1, 0x1b, 0x02, 0x18, 0xef, 0x05, 0xc4, 0x52, 0x07,
  0xfb, 0x38, 0xfb, 0xf3, 0x30, 0xd0, 0xeb, 0xdf, 0x07, 0xfe, 0xe7, 0x1a,
  0xe9, 0xd9, 0x7f, 0x05, 0x11, 0xdd, 0x00, 0xf3, 0xdc, 0xb7, 0x14, 0x22,
  0xf7, 0x09, 0xef, 0x00, 0x13, 0xd3, 0xf6, 0x01, 0x1e, 0x1b, 0xf7, 0x1d,
  0xf3, 0xf1, 0x13, 0xd2, 0x14, 0xf8, 0x28, 0xfc, 0x17, 0xd3, 0xe4, 0x15,
  0xf8, 0x13, 0xe4, 0x1c, 0x1b, 0x02, 0xc8, 0xee, 0xf8, 0xca, 0xf5, 0xfa,
  0xee, 0xf0, 0x39, 0xfa, 0x39, 0xff, 0x1e, 0xf5, 0xe7, 0xc8, 0x10, 0xff,
  0xfd, 0xf7, 0xeb, 0xff, 0x5d, 0xc8, 0x1d, 0xe3, 0xd2, 0xf7, 0x13, 0xef,
  0xd9, 0xfc, 0x36, 0x09, 0xf3, 0xec, 0x0d, 0x1a, 0xe3, 0xb2, 0xfd, 0x19,
  0xff, 0x0a, 0x0b, 0x10, 0x1a, 0xfc, 0x1e, 0xe6, 0x14, 0x12, 0xf5, 0x18,
  0xfb, 0x09, 0xf9, 0xe8, 0x3d, 0xfa, 0x27, 0x2d, 0xf2, 0xed, 0x05, 0xec,
  0x10, 0x29, 0xfe, 0xf5, 0x14, 0x29, 0x09, 0xeb, 0xf7, 0xeb, 0xf5, 0xe9,
  0xfd, 0xfd, 0x29, 0xcc, 0x31, 0x1b, 0x24, 0x24, 0xe3, 0xe4, 0x30, 0xfd,
  0xfc, 0xe9, 0x17, 0xf4, 0x55, 0xd0, 0x12, 0xed, 0xda, 0x18, 0x0c, 0x18,
  0x0a, 0x05, 0xfc, 0xe7, 0x16, 0xed, 0xef, 0x0f, 0x25, 0xc3, 0x14, 0x24,
  0x27, 0x5d, 0xe6, 0x0c, 0x06, 0x0f, 0x0b, 0xfa, 0x1b, 0x52, 0x46, 0x2a,
  0x06, 0x7d, 0x1c, 0xc7, 0xca, 0x0c, 0xee, 0xb0, 0xc4, 0xf4, 0xeb, 0xbd,
  0xf6, 0x1c, 0x07, 0xff, 0x2f, 0x34, 0x2d, 0x9e, 0x16, 0x0e, 0x33, 0xee,
  0xd6, 0x4a, 0x28, 0xce, 0xf0, 0x1a, 0x11, 0xb5, 0xa8, 0xc7, 0x0c, 0xd8,
  0x19, 0x1d, 0x27, 0x1a, 0x5d, 0x0f, 0x02, 0xfb, 0x22, 0xc6, 0xf4, 0xc3,
  0x2e, 0x2b, 0xf8, 0xd0, 0x1e, 0x3b, 0xc1, 0xf2, 0x08, 0x30, 0xfa, 0x0e,
  0x09, 0x0f, 0xf4, 0x32, 0x19, 0xf4, 0x7f, 0x04, 0x26, 0xf6, 0x17, 0x0d,
  0x11, 0x2b, 0xfe, 0x07, 0xc0, 0xea, 0x2b, 0x2e, 0xd9, 0xe4, 0xe0, 0xf3,
  0xe3, 0x0b, 0xd9, 0xc3, 0x18, 0x23, 0x0c, 0xce, 0x34, 0x1e, 0x0a, 0x23,
  0x8e, 0x46, 0x1d, 0xfd, 0xca, 0xef, 0x15, 0xf2, 0xc6, 0xdd, 0xf0, 0xd8,
  0xd0, 0x36, 0x1d, 0xfb, 0x28, 0xee, 0x15, 0xd5, 0xe9, 0xfa, 0x2c, 0x8b,
  0xdb, 0x04, 0xb8, 0x25, 0x24, 0x27, 0xa4, 0xfb, 0xbf, 0x25, 0xca, 0x65,
  0x08, 0xa4, 0xe3, 0x29, 0x5a, 0x35, 0x41, 0x37, 0x04, 0x94, 0x46, 0xe8,
  0xa3, 0x24, 0xad, 0xd9, 0xf9, 0x32, 0x19, 0x27, 0xa4, 0xf9, 0xdb, 0x44,
  0x29, 0xf9, 0xc1, 0xdd, 0x2a, 0xd1, 0x09, 0xc3, 0x3e, 0xfa, 0xf6, 0x32,
  0x17, 0x35, 0x13, 0xe4, 0xb6, 0x32, 0x33, 0xee, 0x87, 0xf0, 0xf7, 0x0c,
  0x08, 0x63, 0x62, 0x03, 0x31, 0xd1, 0x16, 0xee, 0x4b, 0x3a, 0xf9, 0x90,
  0x0f, 0x2a, 0xc6, 0x09, 0x23, 0x18, 0xb6, 0x25, 0xc2, 0xee, 0x32, 0x3e,
  0x3d, 0xd0, 0xd7, 0xf7, 0x48, 0xe6, 0xfd, 0xdb, 0x06, 0x29, 0x1e, 0x32,
  0x1d, 0x03, 0xca, 0x01, 0x08, 0x34, 0xf9, 0xdb, 0x01, 0x07, 0xaa, 0x52,
  0x0f, 0xfb, 0xc0, 0x44, 0xe3, 0xdf, 0xce, 0x3e, 0xf9, 0x0e, 0x04, 0x41,
  0xd9, 0x1a, 0x04, 0x2c, 0xce, 0x30, 0xfd, 0xdf, 0x1c, 0xeb, 0xdf, 0x4c,
  0x1e, 0xf9, 0xf8, 0x27, 0x21, 0x1c, 0xec, 0x29, 0xe3, 0x04, 0x11, 0x51,
  0x59, 0xdf, 0xcd, 0xda, 0xb7, 0xef, 0x1f, 0xca, 0x27, 0xd0, 0xe1, 0x21,
  0x1d, 0xe0, 0xd2, 0xf9, 0x1f, 0xdd, 0xb7, 0xf9, 0xcf, 0x24, 0xf0, 0x39,
  0x08, 0x18, 0xc1, 0xe7, 0xdc, 0x09, 0x01, 0x02, 0xf4, 0x30, 0x02, 0x52,
  0x0a, 0x13, 0xed, 0x50, 0xf5, 0x1b, 0xd9, 0x2d, 0xe1, 0x38, 0xaa, 0x3a,
  0xfc, 0xff, 0xdd, 0x1b, 0xca, 0x2a, 0x08, 0x14, 0x12, 0x12, 0x34, 0x48,
  0x33, 0xff, 0x0f, 0xff, 0xf0, 0x18, 0xcf, 0x36, 0x08, 0x09, 0x16, 0x0f,
  0x1d, 0x8b, 0xcc, 0xa2, 0xaf, 0xf0, 0xee, 0x3b, 0x0f, 0xd6, 0x00, 0x47,
  0xfb, 0xf5, 0xd3, 0x31, 0xe9, 0xc5, 0x08, 0x36, 0xf7, 0x16, 0x25, 0x3b,
  0x0d, 0x26, 0xa5, 0x90, 0xdc, 0x14, 0x03, 0x42, 0x06, 0x47, 0xd5, 0x30,
  0xf6, 0x1b, 0xed, 0x44, 0xbb, 0x23, 0x01, 0x31, 0xbd, 0x37, 0xb4, 0x05,
  0x19, 0x04, 0xee, 0xfa, 0xe4, 0x08, 0x1a, 0x2f, 0xdb, 0x30, 0x15, 0x05,
  0x36, 0x27, 0xe1, 0xde, 0xf0, 0x2a, 0xce, 0x14, 0xff, 0xcd, 0xda, 0xfc,
  0x1d, 0xb6, 0xf8, 0xe3, 0xe1, 0x81, 0xff, 0x29, 0xf9, 0xc9, 0xf9, 0xdc,
  0x19, 0xfd, 0xcb, 0xd7, 0x12, 0xdc, 0xe0, 0x1a, 0xe5, 0xc2, 0x32, 0x11,
  0xf1, 0x4e, 0xcd, 0x0f, 0xf7, 0x0b, 0x3d, 0xf3, 0x0c, 0xc9, 0x42, 0x11,
  0x19, 0xb9, 0xf2, 0xcf, 0x17, 0xf6, 0xef, 0xd2, 0xda, 0x12, 0x3b, 0xdd,
  0xd5, 0x08, 0xe8, 0x0b, 0xdc, 0x30, 0xee, 0x10, 0x1d, 0xcb, 0x06, 0x05,
  0x1e, 0xe2, 0x1b, 0x40, 0x19, 0x17, 0xe8, 0x27, 0xf9, 0x21, 0xf7, 0xf2,
  0x12, 0x01, 0xda, 0x1d, 0x08, 0x7c, 0x2c, 0xf3, 0x53, 0x57, 0x2d, 0xf7,
  0x2a, 0xf7, 0xb8, 0xf7, 0x19, 0x09, 0xc9, 0xc0, 0xeb, 0x81, 0xfa, 0xf8,
  0xf8, 0x49, 0xcd, 0x20, 0x1e, 0xdd, 0x53, 0xec, 0x0d, 0xfe, 0x4b, 0xf6,
  0xf5, 0xe7, 0xe9, 0xda, 0xea, 0x16, 0xe6, 0xef, 0xde, 0xf9, 0x02, 0x10,
  0xfb, 0xff, 0xd5, 0x23, 0x21, 0x2f, 0x04, 0x12, 0xfa, 0x07, 0x29, 0xe0,
  0xee, 0xe6, 0x22, 0x06, 0xfa, 0x23, 0x00, 0x41, 0x0c, 0xf5, 0xed, 0xa8,
  0x26, 0x13, 0x08, 0x1c, 0xf4, 0x3f, 0x0e, 0xb6, 0x26, 0x43, 0x37, 0x29,
  0x09, 0xcd, 0xd3, 0x1d, 0x2f, 0x0f, 0xca, 0xd4, 0xd0, 0x96, 0x15, 0x2e,
  0xea, 0x26, 0xba, 0x1c, 0x0a, 0x2e, 0x37, 0xf4, 0x0e, 0x1e, 0x23, 0xda,
  0xe6, 0xfd, 0xea, 0xee, 0x01, 0xf5, 0xf9, 0x1b, 0xe4, 0xc1, 0x1d, 0x14,
  0xe9, 0x16, 0xd8, 0x13, 0xda, 0x21, 0x0e, 0x12, 0x0d, 0xed, 0xe4, 0xf7,
  0xc7, 0xd7, 0x3e, 0x27, 0xf6, 0x0c, 0x21, 0x13, 0x20, 0xa8, 0xfe, 0xb7,
  0xfb, 0xff, 0x36, 0x20, 0xe3, 0xde, 0x32, 0xc6, 0x2c, 0x02, 0x29, 0x5c,
  0xf3, 0xc1, 0xf8, 0xf0, 0x1d, 0x03, 0xdd, 0x22, 0x48, 0x07, 0x08, 0xee,
  0x05, 0x08, 0x4c, 0xd0, 0x11, 0xc9, 0x4d, 0x19, 0x18, 0x05, 0xcd, 0xff,
  0xdd, 0xe5, 0x1b, 0xbe, 0x2a, 0xfb, 0x24, 0x0a, 0x3f, 0x0f, 0xdd, 0xba,
  0x0a, 0xf3, 0x43, 0xcb, 0x3b, 0xe2, 0x38, 0xed, 0xce, 0x07, 0xd0, 0xf3,
  0xe0, 0xe3, 0x36, 0x05, 0xe3, 0xe9, 0xdb, 0x21, 0x7f, 0x30, 0xcf, 0xf7,
  0x0b, 0xfc, 0xee, 0xa2, 0x1e, 0xf0, 0xe4, 0x4d, 0x11, 0xee, 0xb6, 0x03,
  0xff, 0xd1, 0xef, 0x00, 0xd4, 0x10, 0xf5, 0x24, 0x03, 0x23, 0x01, 0x0f,
  0x2c, 0x07, 0x04, 0xf2, 0x16, 0xdc, 0x1f, 0xeb, 0x2c, 0xe9, 0xe6, 0x15,
  0xfa, 0xf6, 0x2d, 0xfc, 0x3e, 0x18, 0xfa, 0xd8, 0xf2, 0x2a, 0xde, 0xda,
  0x2e, 0xe0, 0x23, 0xad, 0x25, 0xb2, 0xfd, 0xdd, 0xd8, 0x0c, 0xe4, 0xc9,
  0x1f, 0x03, 0x39, 0x0b, 0xdf, 0x20, 0xfd, 0x30, 0x42, 0x27, 0xf0, 0x25,
  0x29, 0x14, 0x14, 0xbc, 0x00, 0xd2, 0xb1, 0xff, 0x08, 0x0b, 0x02, 0xff,
  0x17, 0xdf, 0xde, 0x16, 0xb0, 0x28, 0x09, 0x32, 0x04, 0x36, 0x2e, 0x59,
  0x0d, 0xeb, 0x08, 0x04, 0x23, 0xed, 0x2a, 0x10, 0x08, 0xc9, 0xd9, 0x2f,
  0xe8, 0x2e, 0xed, 0x12, 0xe6, 0x16, 0x3e, 0xec, 0x19, 0x03, 0x25, 0xed,
  0xe8, 0xfe, 0x38, 0xde, 0x02, 0xc5, 0x32, 0xdd, 0xfe, 0x28, 0xef, 0xd6,
  0x25, 0x19, 0x0d, 0xf4, 0xcf, 0x19, 0xf0, 0x22, 0x27, 0x01, 0x06, 0x21,
  0x12, 0x2e, 0x28, 0x99, 0xe9, 0xca, 0xe7, 0x1d, 0x34, 0xf9, 0xd2, 0x0c,
  0xae, 0xf5, 0xff, 0xff, 0x04, 0x00, 0x00, 0x00, 0x60, 0x00, 0x00, 0x00,
  0x65, 0xf8, 0xff, 0xff, 0x27, 0xfb, 0xff, 0xff, 0xbf, 0xf9, 0xff, 0xff,
  0xfe, 0xfb, 0xff, 0xff, 0x43, 0xfa, 0xff, 0xff, 0x39, 0xfb, 0xff, 0xff,
  0x09, 0xfb, 0xff, 0xff, 0xd7, 0xfb, 0xff, 0xff, 0x9a, 0xfa, 0xff, 0xff,
  0x48, 0xfc, 0xff, 0xff, 0xb3, 0xf9, 0xff, 0xff, 0xeb, 0xfb, 0xff, 0xff,
  0x45, 0xfd, 0xff, 0xff, 0x8f, 0xfa, 0xff, 0xff, 0xc5, 0xfa, 0xff, 0xff,
  0x4c, 0xf9, 0xff, 0xff, 0x2f, 0xfd, 0xff, 0xff, 0xd8, 0xfc, 0xff, 0xff,
  0x89, 0xfb, 0xff, 0xff, 0xe2, 0xfb, 0xff, 0xff, 0x11, 0xfa, 0xff, 0xff,
  0xb2, 0xf9, 0xff, 0xff, 0x16, 0xfa, 0xff, 0xff, 0x08, 0xfb, 0xff, 0xff,
  0x1a, 0xf6, 0xff, 0xff, 0x04, 0x00, 0x00, 0x00, 0x80, 0x01, 0x00, 0x00,
  0x25, 0x02, 0xec, 0x13, 0xe1, 0x0b, 0x05, 0xbb, 0xea, 0xb1, 0x00, 0x7f,
  0xc8, 0xff, 0xe9, 0x03, 0xfd, 0xe3, 0x1a, 0xdf, 0x7f, 0x34, 0x38, 0xc5,
  0x3f, 0xe3, 0x07, 0x1f, 0x1e, 0x26, 0x05, 0xd4, 0x36, 0x11, 0xeb, 0x47,
  0x52, 0x3b, 0x7f, 0x23, 0x12, 0xfd, 0xc5, 0x26, 0xd3, 0xcc, 0x33, 0xf7,
  0xfa, 0x8f, 0xfd, 0xec, 0xfa, 0xed, 0x49, 0xfd, 0xbf, 0x22, 0x27, 0x90,
  0x57, 0x5d, 0xfa, 0x7f, 0x41, 0x96, 0xde, 0xd0, 0x47, 0x7f, 0xf2, 0x16,
  0xee, 0x32, 0x05, 0x2c, 0x58, 0x17, 0x3c, 0xf4, 0x05, 0x41, 0x70, 0xde,
  0x06, 0x48, 0xca, 0x3d, 0x5b, 0xd5, 0x6d, 0x81, 0x04, 0xff, 0xef, 0xf5,
  0xa0, 0x3f, 0xe6, 0x60, 0x30, 0x16, 0xcb, 0x79, 0xfc, 0xe4, 0x7f, 0xe0,
  0x8a, 0x0b, 0x9d, 0x2d, 0x1e, 0x56, 0x7d, 0xe4, 0x81, 0x09, 0xbb, 0x46,
  0x4a, 0x35, 0xa9, 0x9a, 0x66, 0xea, 0xbe, 0x0e, 0xa3, 0xed, 0x0c, 0xbd,
  0x35, 0x39, 0x22, 0x5c, 0x04, 0xc7, 0x7f, 0x2f, 0xff, 0x18, 0xe4, 0xa3,
  0x12, 0xe2, 0x40, 0xd8, 0x0a, 0x7f, 0x68, 0xb5, 0xf2, 0xc3, 0xf1, 0xde,
  0xf4, 0x3e, 0xfb, 0xed, 0x2f, 0xd6, 0xad, 0x3a, 0xd4, 0x04, 0x51, 0x11,
  0x00, 0x29, 0x3a, 0x39, 0x55, 0xd1, 0x81, 0x0b, 0x21, 0xe8, 0xab, 0xef,
  0x90, 0xc4, 0x7f, 0x96, 0x4b, 0x74, 0x0e, 0xfd, 0x60, 0xee, 0xd0, 0x0b,
  0x23, 0xea, 0xe9, 0xf6, 0xf1, 0x15, 0x7f, 0xe5, 0x1c, 0x68, 0xef, 0x03,
  0xde, 0xbe, 0xda, 0xfa, 0x27, 0xc8, 0x2f, 0x9e, 0x51, 0x23, 0x7f, 0xea,
  0x24, 0xcc, 0x40, 0x21, 0x08, 0x51, 0xde, 0xae, 0x50, 0x38, 0x8c, 0x19,
  0x40, 0x91, 0x25, 0x22, 0x69, 0xd7, 0x5d, 0xf7, 0xc2, 0x7f, 0x1f, 0x70,
  0xdd, 0xf9, 0xaa, 0x3c, 0xb8, 0x32, 0x1f, 0xdb, 0xbf, 0x45, 0xb6, 0xc3,
  0x25, 0x56, 0xaf, 0x7f, 0x00, 0xac, 0xdf, 0x1f, 0x2d, 0xee, 0x1b, 0x2a,
  0x12, 0x1f, 0x7f, 0x1a, 0x33, 0x7a, 0x97, 0x3f, 0x13, 0x1a, 0xd2, 0x50,
  0x0e, 0xc6, 0xc4, 0x8d, 0x89, 0xb8, 0xfd, 0x75, 0x0a, 0x7f, 0xd6, 0x7a,
  0x30, 0xe7, 0x04, 0x06, 0x71, 0xf8, 0x81, 0xdd, 0xfc, 0x13, 0x2f, 0x25,
  0xbe, 0x59, 0xef, 0x21, 0x19, 0x0e, 0x05, 0x92, 0x15, 0x0b, 0x7f, 0xeb,
  0xdd, 0x1b, 0x21, 0x37, 0xf1, 0xf1, 0x05, 0x0c, 0xec, 0xde, 0xd7, 0xef,
  0xbb, 0x1c, 0x7f, 0x1d, 0xe8, 0x12, 0xf4, 0x1a, 0x10, 0x35, 0xda, 0xf5,
  0x6a, 0xf1, 0xe1, 0x27, 0x68, 0xdf, 0x97, 0x70, 0x7f, 0xb7, 0xcf, 0xe5,
  0x2f, 0xe2, 0x29, 0x3b, 0xba, 0xce, 0xb9, 0xb8, 0x0f, 0x33, 0x9c, 0xb4,
  0x52, 0x7f, 0xe9, 0xfa, 0x64, 0x10, 0x07, 0x58, 0x29, 0xc6, 0x0b, 0xe7,
  0x7f, 0x21, 0xba, 0x51, 0x2c, 0xd4, 0x0c, 0x11, 0x2b, 0xe5, 0x2a, 0x27,
  0xa6, 0xf7, 0xff, 0xff, 0x04, 0x00, 0x00, 0x00, 0x60, 0x00, 0x00, 0x00,
  0xd3, 0x02, 0x00, 0x00, 0xa0, 0xf4, 0xff, 0xff, 0x45, 0xea, 0xff, 0xff,
  0xb9, 0xfe, 0xff, 0xff, 0xe6, 0xed, 0xff, 0xff, 0x9c, 0xf6, 0xff, 0xff,
  0x5b, 0xf8, 0xff, 0xff, 0x55, 0xfe, 0xff, 0xff, 0x50, 0xfa, 0xff, 0xff,
  0xa6, 0xf8, 0xff, 0xff, 0x4f, 0xfe, 0xff, 0xff, 0xca, 0x07, 0x00, 0x00,
  0xf0, 0xff, 0xff, 0xff, 0x8c, 0xf8, 0xff, 0xff, 0xc2, 0xe8, 0xff, 0xff,
  0x41, 0x02, 0x00, 0x00, 0x43, 0xf4, 0xff, 0xff, 0x7d, 0xfe, 0xff, 0xff,
  0xbf, 0xf8, 0xff, 0xff, 0x9e, 0xfb, 0xff, 0xff, 0x11, 0x01, 0x00, 0x00,
  0x06, 0xf0, 0xff, 0xff, 0x00, 0xfe, 0xff, 0xff, 0x83, 0xf1, 0xff, 0xff,
  0x12, 0xf8, 0xff, 0xff, 0x04, 0x00, 0x00, 0x00, 0x48, 0x03, 0x00, 0x00,
  0x16, 0xd5, 0x06, 0xd9, 0x92, 0x0d, 0x1d, 0x00, 0x21, 0x9a, 0x32, 0xc7,
  0x09, 0x30, 0xf4, 0xe2, 0x1d, 0x20, 0xe6, 0x00, 0x06, 0x36, 0xf1, 0xba,
  0x06, 0x0c, 0xe1, 0xcb, 0xd1, 0x2f, 0x42, 0xe0, 0x02, 0x25, 0xf5, 0xdb,
  0xa9, 0xfd, 0xf9, 0x05, 0x39, 0xdf, 0x20, 0x25, 0xce, 0xf8, 0x05, 0xaa,
  0x42, 0xfb, 0x10, 0xbd, 0xdc, 0xed, 0x13, 0xb2, 0x25, 0x1f, 0x1f, 0xe7,
  0xf7, 0xf0, 0x49, 0xa7, 0x13, 0x09, 0xf7, 0x02, 0xd7, 0xeb, 0x19, 0xcb,
  0xe5, 0x04, 0xf8, 0x05, 0xee, 0x32, 0x1f, 0xcf, 0x16, 0xc0, 0xdd, 0x52,
  0xdf, 0xf3, 0xb4, 0xe5, 0xf2, 0x15, 0xc1, 0x32, 0x9b, 0xec, 0x34, 0x2b,
  0x13, 0xc2, 0x3e, 0xf6, 0x18, 0xc6, 0x3d, 0xf8, 0x09, 0x0b, 0xe0, 0x33,
  0xfa, 0x37, 0x08, 0xc2, 0x2f, 0xeb, 0x0c, 0xdc, 0xb0, 0xdf, 0xcd, 0xd7,
  0x0b, 0x10, 0xea, 0x0e, 0xfe, 0xe0, 0xb4, 0x01, 0x20, 0x02, 0xf3, 0x40,
  0xc1, 0x3a, 0xdb, 0x0f, 0x31, 0x08, 0x31, 0xd0, 0xcf, 0xe8, 0xca, 0xd9,
  0x5a, 0x2a, 0x1a, 0xb9, 0x18, 0x2f, 0xdd, 0x06, 0xd2, 0xf3, 0xdd, 0x9c,
