/* Copyright 2023 The TensorFlow Authors. All Rights Reserved.

Licensed under the Apache License, Version 2.0 (the "License");
you may not use this file except in compliance with the License.
You may obtain a copy of the License at

    http://www.apache.org/licenses/LICENSE-2.0

Unless required by applicable law or agreed to in writing, software
distributed under the License is distributed on an "AS IS" BASIS,
WITHOUT WARRANTIES OR CONDITIONS OF ANY KIND, either express or implied.
See the License for the specific language governing permissions and
limitations under the License.
==============================================================================*/

// This is a standard TensorFlow Lite FlatBuffer model file that has been
// converted into a C data array, so it can be easily compiled into a binary
// for devices that don't have a file system. It was created using the command:
// xxd -i model.tflite > model.cc

#include "micro_features_model.h"

// Keep aligned to 16 bytes for CMSIS
alignas(16) const unsigned char g_model[] = {
    0x20, 0x00, 0x00, 0x00, 0x54, 0x46, 0x4c, 0x33, 0x00, 0x00, 0x00, 0x00,
    0x14, 0x00, 0x20, 0x00, 0x1c, 0x00, 0x18, 0x00, 0x14, 0x00, 0x10, 0x00,
    0x0c, 0x00, 0x00, 0x00, 0x08, 0x00, 0x04, 0x00, 0x14, 0x00, 0x00, 0x00,
    0x1c, 0x00, 0x00, 0x00, 0x80, 0x00, 0x00, 0x00, 0xd8, 0x00, 0x00, 0x00,
    0xb0, 0x0b, 0x00, 0x00, 0xc0, 0x0b, 0x00, 0x00, 0x68, 0x24, 0x00, 0x00,
    0x03, 0x00, 0x00, 0x00, 0x01, 0x00, 0x00, 0x00, 0x04, 0x00, 0x00, 0x00,
    0x2e, 0xf2, 0xff, 0xff, 0x0c, 0x00, 0x00, 0x00, 0x1c, 0x00, 0x00, 0x00,
    0x38, 0x00, 0x00, 0x00, 0x0f, 0x00, 0x00, 0x00, 0x73, 0x65, 0x72, 0x76,
    0x69, 0x6e, 0x67, 0x5f, 0x64, 0x65, 0x66, 0x61, 0x75, 0x6c, 0x74, 0x00,
    0x01, 0x00, 0x00, 0x00, 0x04, 0x00, 0x00, 0x00, 0x9c, 0xff, 0xff, 0xff,
    0x18, 0x00, 0x00, 0x00, 0x04, 0x00, 0x00, 0x00, 0x05, 0x00, 0x00, 0x00,
    0x6d, 0x6f, 0x64, 0x65, 0x6c, 0x00, 0x00, 0x00, 0x01, 0x00, 0x00, 0x00,
    0x04, 0x00, 0x00, 0x00, 0x32, 0xf2, 0xff, 0xff, 0x04, 0x00, 0x00, 0x00,
    0x07, 0x00, 0x00, 0x00, 0x69, 0x6e, 0x70, 0x75, 0x74, 0x5f, 0x31, 0x00,
    0x02, 0x00, 0x00, 0x00, 0x34, 0x00, 0x00, 0x00, 0x04, 0x00, 0x00, 0x00,
    0xdc, 0xff, 0xff, 0xff, 0x1b, 0x00, 0x00, 0x00, 0x04, 0x00, 0x00, 0x00,
    0x13, 0x00, 0x00, 0x00, 0x43, 0x4f, 0x4e, 0x56, 0x45, 0x52, 0x53, 0x49,
    0x4f, 0x4e, 0x5f, 0x4d, 0x45, 0x54, 0x41, 0x44, 0x41, 0x54, 0x41, 0x00,
    0x08, 0x00, 0x0c, 0x00, 0x08, 0x00, 0x04, 0x00, 0x08, 0x00, 0x00, 0x00,
    0x1a, 0x00, 0x00, 0x00, 0x04, 0x00, 0x00, 0x00, 0x13, 0x00, 0x00, 0x00,
    0x6d, 0x69, 0x6e, 0x5f, 0x72, 0x75, 0x6e, 0x74, 0x69, 0x6d, 0x65, 0x5f,
    0x76, 0x65, 0x72, 0x73, 0x69, 0x6f, 0x6e, 0x00, 0x1c, 0x00, 0x00, 0x00,
    0xd4, 0x0a, 0x00, 0x00, 0xcc, 0x0a, 0x00, 0x00, 0xb8, 0x0a, 0x00, 0x00,
    0xa4, 0x0a, 0x00, 0x00, 0x90, 0x0a, 0x00, 0x00, 0x88, 0x0a, 0x00, 0x00,
    0x70, 0x0a, 0x00, 0x00, 0xd4, 0x09, 0x00, 0x00, 0x64, 0x05, 0x00, 0x00,
    0xd4, 0x04, 0x00, 0x00, 0xc4, 0x02, 0x00, 0x00, 0x74, 0x02, 0x00, 0x00,
    0xd4, 0x01, 0x00, 0x00, 0x84, 0x01, 0x00, 0x00, 0xe4, 0x00, 0x00, 0x00,
    0xdc, 0x00, 0x00, 0x00, 0xd4, 0x00, 0x00, 0x00, 0xcc, 0x00, 0x00, 0x00,
    0xc4, 0x00, 0x00, 0x00, 0xbc, 0x00, 0x00, 0x00, 0xb4, 0x00, 0x00, 0x00,
    0xac, 0x00, 0x00, 0x00, 0xa4, 0x00, 0x00, 0x00, 0x9c, 0x00, 0x00, 0x00,
    0x94, 0x00, 0x00, 0x00, 0x8c, 0x00, 0x00, 0x00, 0x6c, 0x00, 0x00, 0x00,
    0x04, 0x00, 0x00, 0x00, 0x16, 0xf3, 0xff, 0xff, 0x04, 0x00, 0x00, 0x00,
    0x58, 0x00, 0x00, 0x00, 0x0c, 0x00, 0x00, 0x00, 0x08, 0x00, 0x0e, 0x00,
    0x08, 0x00, 0x04, 0x00, 0x08, 0x00, 0x00, 0x00, 0x10, 0x00, 0x00, 0x00,
    0x28, 0x00, 0x00, 0x00, 0x00, 0x00, 0x06, 0x00, 0x08, 0x00, 0x04, 0x00,
    0x06, 0x00, 0x00, 0x00, 0x04, 0x00, 0x00, 0x00, 0x01, 0x00, 0x00, 0x00,
    0xeb, 0x03, 0x00, 0x00, 0x00, 0x00, 0x0a, 0x00, 0x10, 0x00, 0x0c, 0x00,
    0x08, 0x00, 0x04, 0x00, 0x0a, 0x00, 0x00, 0x00, 0x01, 0x00, 0x00, 0x00,
    0x02, 0x00, 0x00, 0x00, 0x04, 0x00, 0x00, 0x00, 0x06, 0x00, 0x00, 0x00,
    0x32, 0x2e, 0x31, 0x31, 0x2e, 0x30, 0x00, 0x00, 0x7a, 0xf3, 0xff, 0xff,
    0x04, 0x00, 0x00, 0x00, 0x10, 0x00, 0x00, 0x00, 0x31, 0x2e, 0x31, 0x34,
    0x2e, 0x30, 0x00, 0x00, 0x00, 0x00, 0x00, 0x00, 0x00, 0x00, 0x00, 0x00,
    0x30, 0xde, 0xff, 0xff, 0x34, 0xde, 0xff, 0xff, 0x38, 0xde, 0xff, 0xff,
    0x3c, 0xde, 0xff, 0xff, 0x40, 0xde, 0xff, 0xff, 0x44, 0xde, 0xff, 0xff,
    0x48, 0xde, 0xff, 0xff, 0x4c, 0xde, 0xff, 0xff, 0x50, 0xde, 0xff, 0xff,
    0x54, 0xde, 0xff, 0xff, 0x58, 0xde, 0xff, 0xff, 0xc2, 0xf3, 0xff, 0xff,
    0x04, 0x00, 0x00, 0x00, 0x90, 0x00, 0x00, 0x00, 0xbc, 0xa3, 0x81, 0x22,
    0x12, 0xf9, 0x56, 0x6f, 0x46, 0xf6, 0xbf, 0x81, 0x60, 0x11, 0xa5, 0x79,
    0x4d, 0x10, 0x5a, 0x2d, 0x7f, 0x0e, 0x06, 0x17, 0xb5, 0xec, 0xa7, 0xb9,
    0xa8, 0x81, 0xc1, 0x18, 0x52, 0x57, 0x53, 0x7e, 0xba, 0xbb, 0xd0, 0xe6,
    0xee, 0x13, 0xe0, 0x81, 0xd0, 0x95, 0x81, 0x8c, 0x04, 0x1c, 0x2b, 0x6c,
    0x71, 0x49, 0x63, 0x77, 0x4a, 0xc5, 0x00, 0x5b, 0xc6, 0x81, 0xad, 0xdb,
    0xbf, 0xd1, 0xe4, 0xcb, 0x66, 0x89, 0x81, 0x4b, 0x28, 0x0a, 0xaf, 0x81,
    0xc2, 0xb8, 0x3e, 0x5e, 0x69, 0xdb, 0x81, 0xe2, 0xf7, 0xd6, 0xea, 0xd9,
    0xf7, 0x97, 0x2e, 0x54, 0x08, 0x7f, 0x08, 0x8b, 0x3e, 0xc2, 0x8b, 0x94,
    0xe8, 0x37, 0xde, 0x29, 0x7f, 0x46, 0x26, 0xbc, 0x7a, 0xcb, 0x8d, 0x10,
    0x7a, 0xd1, 0x81, 0x73, 0x6b, 0xf6, 0xf5, 0x22, 0xff, 0x2b, 0x3b, 0x7f,
    0x0d, 0xbd, 0xf1, 0x78, 0x74, 0x28, 0x20, 0x07, 0xc3, 0xa1, 0x81, 0xb8,
    0xe0, 0x2b, 0xfc, 0x4a, 0x63, 0x7f, 0x53, 0x05, 0x5e, 0xf4, 0xff, 0xff,
    0x04, 0x00, 0x00, 0x00, 0x40, 0x00, 0x00, 0x00, 0x63, 0x2f, 0x00, 0x00,
    0xb1, 0x26, 0x00, 0x00, 0x33, 0x38, 0x00, 0x00, 0x3c, 0x20, 0x00, 0x00,
    0x3d, 0x7a, 0x00, 0x00, 0x06, 0x06, 0x00, 0x00, 0xfe, 0x42, 0x00, 0x00,
    0xbc, 0x93, 0x00, 0x00, 0xd7, 0x00, 0x00, 0x00, 0xaf, 0x75, 0x00, 0x00,
    0xe2, 0x17, 0x00, 0x00, 0xec, 0x30, 0x00, 0x00, 0xdd, 0xfd, 0xff, 0xff,
    0xcc, 0x44, 0x00, 0x00, 0xfb, 0x03, 0x00, 0x00, 0x9f, 0x9d, 0x00, 0x00,
    0xaa, 0xf4, 0xff, 0xff, 0x04, 0x00, 0x00, 0x00, 0x90, 0x00, 0x00, 0x00,
    0x59, 0x62, 0x55, 0x1d, 0x31, 0x7f, 0x49, 0xba, 0x1d, 0x50, 0xcc, 0x46,
    0xc5, 0x81, 0xfe, 0xce, 0xe6, 0x4d, 0xb5, 0x1e, 0x23, 0x03, 0x17, 0x66,
    0x0f, 0x42, 0xeb, 0x23, 0xbc, 0xff, 0xee, 0xd8, 0x7f, 0x7f, 0x15, 0x7f,
    0xc1, 0x79, 0x81, 0xed, 0xfe, 0x0d, 0xe9, 0x3b, 0x96, 0xfd, 0x10, 0x68,
    0xe4, 0x67, 0x2f, 0x0f, 0xec, 0x04, 0x1a, 0xbd, 0xbc, 0x23, 0x61, 0xe7,
    0xd6, 0x06, 0xb2, 0xfa, 0xf5, 0x2a, 0xd8, 0x08, 0xab, 0xf6, 0x54, 0xbb,
    0x0e, 0x12, 0x6a, 0x89, 0xd6, 0x2a, 0xaa, 0x39, 0x18, 0x25, 0x4e, 0x46,
    0x94, 0x08, 0xd0, 0xa2, 0x81, 0x81, 0x3d, 0x81, 0xbb, 0xe4, 0x81, 0x05,
    0x92, 0x1b, 0x23, 0x12, 0x3b, 0x05, 0xfd, 0x7f, 0x0e, 0x36, 0x64, 0x76,
    0xac, 0x60, 0x1f, 0x73, 0xf3, 0x45, 0x9e, 0x37, 0x7f, 0xf4, 0x13, 0x73,
    0x07, 0x03, 0x2f, 0x50, 0x81, 0x51, 0x34, 0x16, 0x13, 0x57, 0x7f, 0x18,
    0x21, 0x44, 0x2f, 0x21, 0x20, 0x9c, 0x7f, 0xed, 0x9a, 0xcd, 0x48, 0x81,
    0x46, 0xf5, 0xff, 0xff, 0x04, 0x00, 0x00, 0x00, 0x40, 0x00, 0x00, 0x00,
    0xed, 0xf6, 0xff, 0xff, 0x47, 0xb6, 0xff, 0xff, 0xc3, 0xd5, 0xff, 0xff,
    0x08, 0xdf, 0xff, 0xff, 0x26, 0xfc, 0xff, 0xff, 0xdd, 0xfd, 0xff, 0xff,
    0x96, 0xef, 0xff, 0xff, 0x84, 0xf8, 0xff, 0xff, 0xce, 0x02, 0x00, 0x00,
    0xa4, 0xfa, 0xff, 0xff, 0xf4, 0xb7, 0xff, 0xff, 0xd0, 0xf4, 0xff, 0xff,
    0x0f, 0x0c, 0x00, 0x00, 0x71, 0xfb, 0xff, 0xff, 0xc8, 0x02, 0x00, 0x00,
    0x6b, 0xf0, 0xff, 0xff, 0x92, 0xf5, 0xff, 0xff, 0x04, 0x00, 0x00, 0x00,
    0x00, 0x02, 0x00, 0x00, 0xe7, 0xfa, 0x1c, 0x07, 0x7f, 0xff, 0xbb, 0x95,
    0x01, 0xbc, 0xce, 0x13, 0xe8, 0x02, 0x0b, 0x05, 0x21, 0x18, 0x47, 0xa4,
    0x33, 0x1c, 0x81, 0x0c, 0xec, 0xe9, 0xe9, 0xed, 0xdf, 0x12, 0xe5, 0xcd,
    0xb4, 0xeb, 0x27, 0x3c, 0x57, 0x25, 0xcf, 0x1b, 0xd6, 0x81, 0x22, 0xf9,
    0xdc, 0xf6, 0xb5, 0x94, 0xba, 0x98, 0xf4, 0x7f, 0xf8, 0x21, 0x91, 0x0e,
    0xd5, 0x1b, 0x0d, 0xd5, 0xfe, 0x28, 0xfe, 0x0c, 0x15, 0x79, 0x7f, 0xdf,
    0x4d, 0xcb, 0x98, 0xda, 0x0a, 0xdc, 0xe0, 0x13, 0x3d, 0xeb, 0x19, 0xe4,
    0x45, 0x62, 0x2d, 0x81, 0x09, 0x05, 0x15, 0xf5, 0xda, 0x0c, 0x08, 0xfc,
    0x1f, 0x35, 0xe9, 0x39, 0xe5, 0xe8, 0x7e, 0xc2, 0xdd, 0x56, 0xde, 0x99,
    0xc8, 0x7c, 0xeb, 0xa9, 0x27, 0xc6, 0x2a, 0x7f, 0x19, 0x66, 0x14, 0x97,
    0x7b, 0x2e, 0xea, 0xc1, 0x81, 0xd0, 0x96, 0xa5, 0xe3, 0x1d, 0x37, 0xa2,
    0x1f, 0xc8, 0x81, 0xe0, 0xe7, 0x25, 0x43, 0x05, 0xf3, 0x19, 0x11, 0xd8,
    0x0d, 0x09, 0xfe, 0x6a, 0xf9, 0x94, 0xc5, 0x19, 0x19, 0x14, 0x0f, 0x81,
    0x06, 0x35, 0x26, 0x12, 0xb4, 0xef, 0x10, 0x45, 0x03, 0x61, 0x97, 0xd9,
    0xca, 0xba, 0x7f, 0x62, 0x17, 0xf3, 0x4c, 0x39, 0xa8, 0x89, 0xf9, 0x46,
    0x3e, 0xfd, 0x2f, 0xe2, 0x32, 0xda, 0x81, 0xf3, 0xcf, 0x07, 0x6a, 0x03,
    0xf4, 0x44, 0xed, 0xbe, 0x7f, 0x44, 0xfc, 0xaa, 0xe1, 0xe3, 0x92, 0xa3,
    0xf8, 0x7d, 0x90, 0x0b, 0x97, 0x16, 0xbc, 0x22, 0x3e, 0xd4, 0xef, 0xf2,
    0xb7, 0xdc, 0x36, 0x7f, 0x16, 0xef, 0x0a, 0x15, 0xf6, 0x45, 0xce, 0xe8,
    0x35, 0xfe, 0x7f, 0x44, 0x07, 0xb7, 0xb7, 0xc9, 0x1a, 0x23, 0xcf, 0x51,
    0xdc, 0x08, 0x18, 0xb3, 0x5c, 0xe5, 0xcf, 0x81, 0xec, 0x37, 0xdf, 0x2e,
    0x31, 0x03, 0xb6, 0x33, 0x20, 0x67, 0x8c, 0xd8, 0xea, 0xc5, 0xf2, 0x3d,
    0xce, 0xed, 0x13, 0xf6, 0xed, 0x44, 0x3d, 0xe1, 0xd7, 0xc4, 0x81, 0x6e,
    0xd6, 0xde, 0x82, 0x09, 0x12, 0x3a, 0xfa, 0xdd, 0xff, 0x24, 0x12, 0x1d,
    0x7f, 0x33, 0x06, 0x6c, 0x24, 0xf3, 0x0e, 0x00, 0x73, 0xfa, 0x39, 0x81,
    0x0b, 0xc7, 0x8d, 0x00, 0xd3, 0x07, 0x03, 0xb7, 0x7f, 0x08, 0xe1, 0xac,
    0xe4, 0xc8, 0x19, 0xe0, 0x22, 0x56, 0x34, 0x1c, 0xba, 0xea, 0x1a, 0xdc,
    0xae, 0xe3, 0x81, 0xdd, 0xe8, 0x59, 0x1a, 0xd2, 0xb0, 0x38, 0x43, 0x91,
    0x15, 0x2b, 0xf4, 0x55, 0x7f, 0x17, 0x5d, 0xdc, 0xc2, 0xc2, 0xd9, 0x3b,
    0x1b, 0x32, 0xca, 0x4b, 0xd3, 0xba, 0x08, 0x20, 0xed, 0x7f, 0x79, 0xfa,
    0xbd, 0xe4, 0x23, 0x64, 0xdd, 0xdd, 0xb1, 0xe6, 0xbd, 0xcc, 0xfa, 0x9c,
    0x25, 0xc8, 0x7f, 0x10, 0x1c, 0x15, 0xf2, 0xf3, 0xfa, 0x15, 0xb0, 0x00,
    0xf9, 0x1c, 0xfc, 0x9e, 0x2d, 0x34, 0x14, 0xc7, 0xb4, 0xe0, 0x7f, 0xf2,
    0xf4, 0x32, 0xdf, 0xef, 0xd0, 0xfa, 0xf3, 0xf5, 0xe7, 0x14, 0x42, 0xf7,
    0xe3, 0x38, 0x7f, 0xf5, 0xc4, 0xf7, 0xc5, 0xd6, 0x12, 0x34, 0xe6, 0xb9,
    0xbc, 0xea, 0xcd, 0x1e, 0x24, 0x17, 0xd3, 0x01, 0x03, 0x09, 0x5e, 0xf4,
    0x3e, 0xe2, 0xd9, 0x7f, 0xe5, 0x10, 0xf7, 0xee, 0x21, 0x3a, 0x7f, 0xf0,
    0xa8, 0xf6, 0xd4, 0xe3, 0xb7, 0xd1, 0x9e, 0x4f, 0x3d, 0xa5, 0x08, 0x7f,
    0x68, 0xa4, 0xbd, 0xa7, 0x41, 0xe0, 0x3d, 0x06, 0x89, 0x4c, 0xe0, 0xf4,
    0xf0, 0x81, 0xfa, 0x33, 0x40, 0x40, 0x9b, 0xa7, 0xd5, 0x0d, 0xfd, 0xdd,
    0x11, 0x11, 0x13, 0xf5, 0x27, 0x1a, 0x17, 0x81, 0xe5, 0x2a, 0x6a, 0xb7,
    0xd8, 0x29, 0xae, 0xe0, 0xf5, 0xf3, 0x14, 0xdb, 0xf4, 0x13, 0xd2, 0x3b,
    0x3b, 0xe2, 0x81, 0xee, 0xee, 0xf4, 0x15, 0xf3, 0xd8, 0xde, 0xcd, 0x70,
    0x9e, 0xf7, 0xff, 0xff, 0x04, 0x00, 0x00, 0x00, 0x80, 0x00, 0x00, 0x00,
    0x60, 0x03, 0x00, 0x00, 0xaf, 0x03, 0x00, 0x00, 0xb7, 0x06, 0x00, 0x00,
    0xf4, 0xff, 0xff, 0xff, 0xd7, 0xfa, 0xff, 0xff, 0xd0, 0xf8, 0xff, 0xff,
    0xa1, 0xfb, 0xff, 0xff, 0x04, 0x02, 0x00, 0x00, 0x7d, 0xfc, 0xff, 0xff,
    0x1d, 0x06, 0x00, 0x00, 0xdd, 0x09, 0x00, 0x00, 0xdc, 0x00, 0x00, 0x00,
    0xeb, 0x0b, 0x00, 0x00, 0xd8, 0x01, 0x00, 0x00, 0x39, 0x03, 0x00, 0x00,
    0x0c, 0xfc, 0xff, 0xff, 0x1d, 0x08, 0x00, 0x00, 0xef, 0xf0, 0xff, 0xff,
    0xbb, 0x03, 0x00, 0x00, 0x71, 0x06, 0x00, 0x00, 0x13, 0xfe, 0xff, 0xff,
    0x8c, 0x04, 0x00, 0x00, 0x31, 0x07, 0x00, 0x00, 0xd5, 0xff, 0xff, 0xff,
    0x46, 0x05, 0x00, 0x00, 0xe8, 0xfc, 0xff, 0xff, 0x42, 0xf9, 0xff, 0xff,
    0xa1, 0x07, 0x00, 0x00, 0x86, 0x09, 0x00, 0x00, 0x9f, 0xfd, 0xff, 0xff,
    0x64, 0x01, 0x00, 0x00, 0x8b, 0x05, 0x00, 0x00, 0x2a, 0xf8, 0xff, 0xff,
    0x04, 0x00, 0x00, 0x00, 0x60, 0x04, 0x00, 0x00, 0xf1, 0xe1, 0xd8, 0xd6,
    0xcd, 0x48, 0xe5, 0x2d, 0x01, 0xea, 0xd5, 0x2a, 0x2a, 0xf4, 0x32, 0xe2,
    0xea, 0xf3, 0xfb, 0x39, 0xd4, 0x10, 0xdf, 0x1a, 0x2a, 0x0b, 0xee, 0xf9,
    0x11, 0xe7, 0x19, 0xc7, 0x21, 0x14, 0xef, 0xc3, 0x31, 0x08, 0xf8, 0x0d,
    0xcb, 0x16, 0x1a, 0x0d, 0x2a, 0x07, 0x24, 0x41, 0xe9, 0xc4, 0xd6, 0x02,
    0xc2, 0x13, 0xde, 0x0d, 0xc9, 0x1c, 0xfb, 0xd2, 0xff, 0xfe, 0xac, 0xd5,
    0x0e, 0xf4, 0xee, 0xa8, 0x19, 0xf7, 0xe7, 0xec, 0xd4, 0xc4, 0x4a, 0xf9,
    0xfc, 0xe2, 0x11, 0x32, 0xea, 0xf9, 0x46, 0x01, 0xba, 0x17, 0xde, 0x2b,
    0xd1, 0x01, 0x14, 0xfc, 0xfc, 0xe8, 0x06, 0x2c, 0xf4, 0x42, 0x15, 0x39,
    0x2c, 0xa1, 0xdb, 0xc5, 0x05, 0x0f, 0xbe, 0x36, 0xe0, 0xf0, 0xdd, 0x1f,
    0xe5, 0x1b, 0xd8, 0x0e, 0xfa, 0x0c, 0x25, 0x3b, 0xde, 0xd3, 0xda, 0x19,
    0x1a, 0xf2, 0xbc, 0xe1, 0x0c, 0xef, 0xe9, 0xc4, 0x0c, 0xcc, 0xff, 0xc6,
    0x13, 0xcc, 0x1a, 0xfa, 0x00, 0xf4, 0x0b, 0x46, 0xe7, 0x16, 0x0a, 0x0b,
    0xee, 0x0e, 0x1d, 0x33, 0xd4, 0x0a, 0x2b, 0x20, 0xe5, 0xac, 0xcb, 0x10,
    0xd9, 0xd6, 0xef, 0xcc, 0xe7, 0xa8, 0x0b, 0xe6, 0x1b, 0x0b, 0xf0, 0xfb,
    0x46, 0x13, 0x07, 0x3a, 0x41, 0x0a, 0xc6, 0xec, 0xf3, 0xd2, 0x2b, 0x07,
    0xef, 0x29, 0x3a, 0x20, 0xf5, 0xc2, 0xb9, 0xff, 0x06, 0xfb, 0x1b, 0xf4,
    0xf9, 0x5c, 0xc6, 0x04, 0xf1, 0xf7, 0xef, 0x1d, 0x16, 0x01, 0xf2, 0x1d,
    0x04, 0xe9, 0x5b, 0x08, 0xe3, 0xbd, 0xaf, 0x05, 0xaa, 0xc1, 0xf3, 0xd9,
    0x40, 0x28, 0x0e, 0x23, 0xe3, 0xfb, 0xe2, 0x1a, 0xd1, 0xa1, 0x15, 0xe1,
    0xab, 0xbc, 0x19, 0x02, 0x00, 0xe1, 0x08, 0xff, 0xf6, 0x10, 0xfb, 0xe8,
    0x0c, 0x1e, 0xf9, 0x34, 0x2f, 0x12, 0x2d, 0xf8, 0x16, 0xfd, 0x42, 0xfe,
    0xed, 0xf6, 0xfc, 0x0a, 0xce, 0xfc, 0x40, 0xdb, 0xda, 0xf4, 0x4d, 0xec,
    0xf3, 0xc0, 0x22, 0xda, 0x03, 0x2b, 0xf3, 0x17, 0x0f, 0x03, 0xc8, 0x19,
    0x04, 0xe2, 0x00, 0xf3, 0xf7, 0x07, 0x03, 0xf7, 0xcc, 0xcf, 0xd2, 0x12,
    0xce, 0x25, 0x32, 0xe4, 0xe0, 0xd3, 0x3a, 0xcf, 0xc8, 0xb3, 0x1c, 0xe6,
    0xf8, 0x3d, 0x16, 0x2f, 0xf2, 0x29, 0xe4, 0x0e, 0x3f, 0xe0, 0xef, 0x0f,
    0xea, 0x11, 0x35, 0x08, 0xed, 0xf0, 0x00, 0x0f, 0xfa, 0xfe, 0x04, 0xc2,
    0x09, 0x8c, 0x29, 0xd6, 0xca, 0xe8, 0x0b, 0xcd, 0xf3, 0x5d, 0x03, 0xd5,
    0x1a, 0x1a, 0x17, 0x20, 0x4a, 0x9b, 0xfa, 0x03, 0xf8, 0x0a, 0x52, 0x29,
    0xdb, 0x0c, 0x1e, 0xcb, 0x0e, 0xfd, 0x11, 0xfc, 0x23, 0xef, 0xf2, 0xf8,
    0x0e, 0x1b, 0xef, 0x10, 0x25, 0x22, 0xf0, 0xc8, 0x06, 0xd1, 0x0d, 0x09,
    0xbe, 0xf1, 0x1d, 0x0f, 0xff, 0xca, 0xbb, 0x2c, 0x12, 0x1e, 0xf4, 0x32,
    0xf2, 0xf4, 0xc7, 0x1c, 0x1e, 0x22, 0xdc, 0x22, 0xe9, 0x16, 0xf3, 0xce,
    0xd7, 0xe1, 0xf3, 0x61, 0x50, 0x31, 0xc2, 0x03, 0xa4, 0x02, 0xc8, 0xbd,
    0x10, 0xe7, 0xda, 0x06, 0x3f, 0x3c, 0xe7, 0x37, 0x18, 0xc1, 0x07, 0xf3,
    0x19, 0x13, 0xc7, 0x36, 0xf1, 0xfd, 0xc2, 0xf5, 0xf1, 0xe4, 0x01, 0xeb,
    0x31, 0xeb, 0xe6, 0xbf, 0xb5, 0x1c, 0xfa, 0xe8, 0x32, 0xf5, 0xf5, 0x24,
    0xc5, 0xfc, 0x11, 0xe6, 0x03, 0xfb, 0x0c, 0x28, 0xdb, 0xf8, 0x1f, 0xd6,
    0x05, 0xea, 0xf3, 0x07, 0x22, 0x02, 0xfc, 0xf8, 0xf7, 0xf3, 0x19, 0xce,
    0x0b, 0x22, 0x1e, 0x25, 0xdf, 0x1c, 0xb8, 0x01, 0x1e, 0x30, 0x21, 0xfc,
    0x33, 0x38, 0xda, 0x28, 0xe9, 0x0f, 0xac, 0xfa, 0xbf, 0xe7, 0x03, 0x0f,
    0xdf, 0xf2, 0xfa, 0x13, 0xf7, 0x42, 0x30, 0xef, 0x10, 0x0c, 0xc3, 0xf5,
    0xf4, 0x02, 0xf2, 0xaa, 0x13, 0xe7, 0xea, 0xc8, 0xdb, 0x12, 0x0c, 0x3a,
    0x14, 0x25, 0xf4, 0xd5, 0xe2, 0x0f, 0x0a, 0xfb, 0xe2, 0xc2, 0xe6, 0x38,
    0x57, 0x35, 0x1a, 0xfb, 0xe9, 0x3b, 0x0e, 0x0d, 0xaa, 0x9c, 0xdf, 0x00,
    0xd1, 0xef, 0xf8, 0xe6, 0xe4, 0xc6, 0xfd, 0x0d, 0xc2, 0xcb, 0x1b, 0xdd,
    0x2a, 0xfd, 0xd2, 0x1c, 0x10, 0x09, 0x35, 0x01, 0xe2, 0x07, 0x29, 0xe6,
    0x06, 0x4e, 0x29, 0x32, 0xed, 0xbc, 0xff, 0x19, 0xf6, 0x33, 0x44, 0xc1,
    0x1e, 0x15, 0x00, 0x1e, 0x4b, 0xff, 0xc8, 0xe1, 0x10, 0x0c, 0xc9, 0x0f,
    0x26, 0x06, 0xeb, 0xd9, 0x12, 0xe6, 0x4c, 0xc9, 0xcc, 0x04, 0x20, 0xfe,
    0xde, 0xb0, 0x9f, 0x23, 0x40, 0x52, 0xf6, 0x39, 0x3c, 0x56, 0x0a, 0xca,
    0xb0, 0xe2, 0xfe, 0x09, 0x00, 0xef, 0x1a, 0x07, 0xc4, 0x09, 0xeb, 0xd7,
    0xe4, 0x12, 0xc1, 0xe9, 0xed, 0xab, 0xaf, 0x9f, 0x1a, 0x36, 0x1f, 0x0b,
    0xc3, 0xfa, 0xcb, 0x4e, 0xf6, 0x02, 0x1a, 0xe1, 0x81, 0xfc, 0x28, 0xdf,
    0x1c, 0x38, 0xfe, 0x1a, 0x09, 0xf4, 0xbc, 0x03, 0x95, 0xf1, 0xbd, 0xfa,
    0x4b, 0xf2, 0x05, 0xfd, 0xf9, 0x33, 0x15, 0x1b, 0xd7, 0xe3, 0xf7, 0xdd,
    0xf2, 0x25, 0x13, 0x4f, 0xc5, 0x2a, 0xe7, 0xe3, 0xc3, 0x3a, 0xf4, 0xef,
    0x44, 0xcb, 0xaa, 0xed, 0xc1, 0x0b, 0x11, 0xe9, 0x64, 0x60, 0xfc, 0x21,
    0xcd, 0x13, 0x04, 0xd3, 0xe1, 0xef, 0x25, 0xcd, 0xe0, 0x13, 0xf7, 0x50,
    0xf0, 0xfa, 0xa1, 0x1d, 0xd4, 0xf6, 0xe0, 0x18, 0xfd, 0xc6, 0x44, 0xf3,
    0xcd, 0xf3, 0x3d, 0x1b, 0x15, 0x37, 0x2a, 0x37, 0x13, 0xbc, 0x31, 0xe4,
    0xff, 0xdb, 0xe2, 0x26, 0xd5, 0xce, 0x4c, 0xe8, 0x3d, 0x3c, 0x3b, 0xeb,
    0x26, 0x15, 0x4b, 0xc8, 0x0c, 0xd8, 0xb6, 0x33, 0x32, 0x1e, 0xa1, 0xd4,
    0xe2, 0x09, 0xc7, 0xb6, 0xea, 0x21, 0xdd, 0xcd, 0x29, 0xef, 0xd9, 0x3b,
    0xf9, 0xf4, 0x10, 0x0f, 0x06, 0x37, 0x2e, 0xdf, 0x09, 0x12, 0xf1, 0xc6,
    0xd1, 0xf8, 0xc1, 0xee, 0x1e, 0xf9, 0x14, 0xde, 0x2a, 0xde, 0xee, 0xfd,
    0xe7, 0x3d, 0x0f, 0xe1, 0x3d, 0xf1, 0xf6, 0x30, 0x07, 0x0d, 0x0c, 0xb6,
    0x42, 0x0d, 0xf6, 0x37, 0x04, 0xf8, 0xfb, 0xd8, 0xde, 0xea, 0x30, 0xf9,
    0x3b, 0xe2, 0xb4, 0xe9, 0xf8, 0xd2, 0xbf, 0xe2, 0x2e, 0x41, 0x17, 0xd2,
    0x10, 0xe1, 0xeb, 0x02, 0xea, 0xd2, 0x24, 0xf9, 0x15, 0xf4, 0xf2, 0x32,
    0x0b, 0x0f, 0x5d, 0xda, 0xf7, 0x1c, 0x29, 0xe1, 0x18, 0xfc, 0x0a, 0x26,
    0xaf, 0xb1, 0x05, 0xc2, 0x34, 0x02, 0x41, 0xb3, 0xee, 0xbc, 0x1b, 0x00,
    0xc7, 0xfb, 0xbb, 0x05, 0xb5, 0xe7, 0x2d, 0xed, 0xd3, 0xe3, 0xcb, 0x01,
    0xf7, 0x1d, 0x7f, 0x03, 0xda, 0xdf, 0xcc, 0x20, 0x18, 0xfa, 0x1d, 0x21,
    0x11, 0x0b, 0x71, 0x4e, 0xf5, 0xc2, 0xf5, 0x20, 0xe0, 0xd8, 0x92, 0xe8,
    0x18, 0x07, 0x14, 0x0d, 0xee, 0x0e, 0xd4, 0xee, 0x03, 0xfb, 0x4d, 0xf7,
    0xdf, 0xc0, 0xc1, 0x29, 0x2c, 0xd4, 0x27, 0x44, 0x00, 0x1e, 0x63, 0x33,
    0xcd, 0xed, 0x40, 0x04, 0xfd, 0x02, 0xe1, 0x90, 0x20, 0x24, 0x0a, 0xf3,
    0x09, 0x08, 0xf2, 0x3a, 0x17, 0x37, 0xd4, 0xf0, 0x0c, 0xbd, 0xd9, 0x12,
    0xdb, 0xa1, 0x02, 0x13, 0xff, 0xfd, 0xc9, 0x31, 0xf4, 0x38, 0x1a, 0xff,
    0x0e, 0x1d, 0x02, 0x0c, 0x01, 0xdf, 0xb3, 0x43, 0xfc, 0x20, 0x24, 0xe1,
    0xfd, 0x0d, 0xdb, 0x25, 0xdb, 0x16, 0xcb, 0x2c, 0xa7, 0xbd, 0xa4, 0xb2,
    0x35, 0xfd, 0xe8, 0xf1, 0x14, 0xdb, 0x37, 0xd5, 0xde, 0x5e, 0xf7, 0x19,
    0x3e, 0x24, 0x01, 0xe8, 0x41, 0xc7, 0x00, 0xda, 0xe3, 0x00, 0x06, 0x1d,
    0x13, 0xd9, 0xf5, 0xc8, 0x18, 0x08, 0xe9, 0xf5, 0xde, 0x0c, 0xe0, 0xf2,
    0x22, 0x1c, 0x03, 0x8a, 0x0f, 0xeb, 0x11, 0x5a, 0xe7, 0x16, 0xff, 0x0a,
    0xed, 0x0f, 0xe3, 0x19, 0x2b, 0x9b, 0xe7, 0xbd, 0xde, 0xfa, 0x37, 0x03,
    0xe5, 0x53, 0x47, 0x05, 0xdb, 0xf2, 0xbe, 0xed, 0x51, 0x29, 0xee, 0x1c,
    0x50, 0x38, 0xdc, 0x09, 0x26, 0x20, 0xb0, 0x0d, 0xf1, 0x0d, 0xd8, 0xda,
    0xf5, 0xfc, 0xde, 0xbd, 0x09, 0xfc, 0x04, 0x91, 0x46, 0x14, 0xb7, 0xe8,
    0x0e, 0x35, 0xfc, 0xee, 0xd9, 0x07, 0x17, 0x17, 0x1b, 0x03, 0x26, 0xe0,
    0x5a, 0x3c, 0x0f, 0xc0, 0xf7, 0xf8, 0xf3, 0xd9, 0x04, 0x0d, 0xb2, 0xe0,
    0x38, 0xd9, 0x47, 0xaf, 0x33, 0xc8, 0x03, 0x2a, 0xc8, 0x1e, 0xcd, 0xe4,
    0x96, 0xfc, 0xff, 0xff, 0x04, 0x00, 0x00, 0x00, 0x8c, 0x00, 0x00, 0x00,
    0x2d, 0x00, 0x00, 0x00, 0x56, 0x00, 0x00, 0x00, 0x0e, 0x00, 0x00, 0x00,
    0x3b, 0x00, 0x00, 0x00, 0xf4, 0xff, 0xff, 0xff, 0x27, 0x00, 0x00, 0x00,
    0xd8, 0xff, 0xff, 0xff, 0xed, 0xff, 0xff, 0xff, 0xe6, 0xff, 0xff, 0xff,
    0xfe, 0xff, 0xff, 0xff, 0xe8, 0xff, 0xff, 0xff, 0xee, 0xff, 0xff, 0xff,
    0x13, 0x00, 0x00, 0x00, 0xaf, 0xff, 0xff, 0xff, 0xe8, 0xff, 0xff, 0xff,
    0xfb, 0xff, 0xff, 0xff, 0x0b, 0x00, 0x00, 0x00, 0xe6, 0xff, 0xff, 0xff,
    0xc0, 0xff, 0xff, 0xff, 0x1e, 0x00, 0x00, 0x00, 0x0a, 0x00, 0x00, 0x00,
    0x04, 0x00, 0x00, 0x00, 0xe3, 0xff, 0xff, 0xff, 0x54, 0x00, 0x00, 0x00,
    0xfb, 0xff, 0xff, 0xff, 0xc8, 0xff, 0xff, 0xff, 0xc2, 0xff, 0xff, 0xff,
    0xf8, 0xff, 0xff, 0xff, 0xfc, 0xff, 0xff, 0xff, 0x18, 0x00, 0x00, 0x00,
    0x40, 0x00, 0x00, 0x00, 0x1b, 0x00, 0x00, 0x00, 0xfd, 0xff, 0xff, 0xff,
    0x07, 0x00, 0x00, 0x00, 0x21, 0x00, 0x00, 0x00, 0x2e, 0xfd, 0xff, 0xff,
    0x04, 0x00, 0x00, 0x00, 0x08, 0x00, 0x00, 0x00, 0xff, 0xff, 0xff, 0xff,
    0x20, 0x00, 0x00, 0x00, 0xdc, 0xe7, 0xff, 0xff, 0x46, 0xfd, 0xff, 0xff,
    0x04, 0x00, 0x00, 0x00, 0x04, 0x00, 0x00, 0x00, 0x28, 0x00, 0x00, 0x00,
    0x56, 0xfd, 0xff, 0xff, 0x04, 0x00, 0x00, 0x00, 0x04, 0x00, 0x00, 0x00,
    0x01, 0x00, 0x00, 0x00, 0x66, 0xfd, 0xff, 0xff, 0x04, 0x00, 0x00, 0x00,
    0x04, 0x00, 0x00, 0x00, 0x00, 0x00, 0x00, 0x00, 0x10, 0xe8, 0xff, 0xff,
    0x14, 0xe8, 0xff, 0xff, 0x0f, 0x00, 0x00, 0x00, 0x4d, 0x4c, 0x49, 0x52,
    0x20, 0x43, 0x6f, 0x6e, 0x76, 0x65, 0x72, 0x74, 0x65, 0x64, 0x2e, 0x00,
    0x01, 0x00, 0x00, 0x00, 0x14, 0x00, 0x00, 0x00, 0x00, 0x00, 0x0e, 0x00,
    0x18, 0x00, 0x14, 0x00, 0x10, 0x00, 0x0c, 0x00, 0x08, 0x00, 0x04, 0x00,
    0x0e, 0x00, 0x00, 0x00, 0x14, 0x00, 0x00, 0x00, 0x1c, 0x00, 0x00, 0x00,
    0x14, 0x03, 0x00, 0x00, 0x18, 0x03, 0x00, 0x00, 0x1c, 0x03, 0x00, 0x00,
    0x04, 0x00, 0x00, 0x00, 0x6d, 0x61, 0x69, 0x6e, 0x00, 0x00, 0x00, 0x00,
    0x0b, 0x00, 0x00, 0x00, 0xc4, 0x02, 0x00, 0x00, 0x64, 0x02, 0x00, 0x00,
    0x0c, 0x02, 0x00, 0x00, 0xe4, 0x01, 0x00, 0x00, 0x88, 0x01, 0x00, 0x00,
    0x30, 0x01, 0x00, 0x00, 0xec, 0x00, 0x00, 0x00, 0x98, 0x00, 0x00, 0x00,
    0x70, 0x00, 0x00, 0x00, 0x38, 0x00, 0x00, 0x00, 0x04, 0x00, 0x00, 0x00,
    0xd2, 0xfd, 0xff, 0xff, 0x14, 0x00, 0x00, 0x00, 0x00, 0x00, 0x00, 0x09,
    0x14, 0x00, 0x00, 0x00, 0x18, 0x00, 0x00, 0x00, 0x08, 0x00, 0x00, 0x00,
    0x16, 0xfe, 0xff, 0xff, 0x00, 0x00, 0x80, 0x3f, 0x01, 0x00, 0x00, 0x00,
    0x18, 0x00, 0x00, 0x00, 0x01, 0x00, 0x00, 0x00, 0x17, 0x00, 0x00, 0x00,
    0x02, 0xfe, 0xff, 0xff, 0x14, 0x00, 0x00, 0x00, 0x00, 0x00, 0x00, 0x08,
    0x10, 0x00, 0x00, 0x00, 0x14, 0x00, 0x00, 0x00, 0x07, 0x00, 0x00, 0x00,
    0xe0, 0xe8, 0xff, 0xff, 0x01, 0x00, 0x00, 0x00, 0x17, 0x00, 0x00, 0x00,
    0x03, 0x00, 0x00, 0x00, 0x16, 0x00, 0x00, 0x00, 0x07, 0x00, 0x00, 0x00,
    0x06, 0x00, 0x00, 0x00, 0xaa, 0xfe, 0xff, 0xff, 0x0c, 0x00, 0x00, 0x00,
    0x10, 0x00, 0x00, 0x00, 0x03, 0x00, 0x00, 0x00, 0x01, 0x00, 0x00, 0x00,
    0x16, 0x00, 0x00, 0x00, 0x02, 0x00, 0x00, 0x00, 0x15, 0x00, 0x00, 0x00,
    0x05, 0x00, 0x00, 0x00, 0x5a, 0xfe, 0xff, 0xff, 0x24, 0x00, 0x00, 0x00,
    0x00, 0x00, 0x00, 0x05, 0x34, 0x00, 0x00, 0x00, 0x38, 0x00, 0x00, 0x00,
    0x06, 0x00, 0x00, 0x00, 0x00, 0x00, 0x0e, 0x00, 0x18, 0x00, 0x17, 0x00,
    0x10, 0x00, 0x0c, 0x00, 0x08, 0x00, 0x04, 0x00, 0x0e, 0x00, 0x00, 0x00,
    0x14, 0x00, 0x00, 0x00, 0x14, 0x00, 0x00, 0x00, 0x14, 0x00, 0x00, 0x00,
    0x14, 0x00, 0x00, 0x00, 0x00, 0x00, 0x00, 0x01, 0x01, 0x00, 0x00, 0x00,
    0x15, 0x00, 0x00, 0x00, 0x01, 0x00, 0x00, 0x00, 0x14, 0x00, 0x00, 0x00,
    0xaa, 0xfe, 0xff, 0xff, 0x14, 0x00, 0x00, 0x00, 0x00, 0x00, 0x00, 0x01,
    0x1c, 0x00, 0x00, 0x00, 0x20, 0x00, 0x00, 0x00, 0x04, 0x00, 0x00, 0x00,
    0x6c, 0xff, 0xff, 0xff, 0x00, 0x00, 0x00, 0x01, 0x01, 0x00, 0x00, 0x00,
    0x01, 0x00, 0x00, 0x00, 0x01, 0x00, 0x00, 0x00, 0x14, 0x00, 0x00, 0x00,
    0x03, 0x00, 0x00, 0x00, 0x13, 0x00, 0x00, 0x00, 0x09, 0x00, 0x00, 0x00,
    0x08, 0x00, 0x00, 0x00, 0xea, 0xfe, 0xff, 0xff, 0x24, 0x00, 0x00, 0x00,
    0x00, 0x00, 0x00, 0x02, 0x30, 0x00, 0x00, 0x00, 0x34, 0x00, 0x00, 0x00,
    0x05, 0x00, 0x00, 0x00, 0x00, 0x00, 0x0e, 0x00, 0x14, 0x00, 0x00, 0x00,
    0x10, 0x00, 0x0c, 0x00, 0x08, 0x00, 0x07, 0x00, 0x0e, 0x00, 0x00, 0x00,
    0x00, 0x00, 0x00, 0x01, 0x01, 0x00, 0x00, 0x00, 0x01, 0x00, 0x00, 0x00,
    0x01, 0x00, 0x00, 0x00, 0x01, 0x00, 0x00, 0x00, 0x13, 0x00, 0x00, 0x00,
    0x03, 0x00, 0x00, 0x00, 0x12, 0x00, 0x00, 0x00, 0x0b, 0x00, 0x00, 0x00,
    0x0a, 0x00, 0x00, 0x00, 0x3e, 0xff, 0xff, 0xff, 0x20, 0x00, 0x00, 0x00,
    0x00, 0x00, 0x00, 0x01, 0x28, 0x00, 0x00, 0x00, 0x2c, 0x00, 0x00, 0x00,
    0x04, 0x00, 0x00, 0x00, 0x0c, 0x00, 0x10, 0x00, 0x00, 0x00, 0x0c, 0x00,
    0x08, 0x00, 0x07, 0x00, 0x0c, 0x00, 0x00, 0x00, 0x00, 0x00, 0x00, 0x01,
    0x02, 0x00, 0x00, 0x00, 0x02, 0x00, 0x00, 0x00, 0x01, 0x00, 0x00, 0x00,
    0x12, 0x00, 0x00, 0x00, 0x03, 0x00, 0x00, 0x00, 0x11, 0x00, 0x00, 0x00,
    0x0d, 0x00, 0x00, 0x00, 0x0c, 0x00, 0x00, 0x00, 0x00, 0x00, 0x0a, 0x00,
    0x10, 0x00, 0x0c, 0x00, 0x08, 0x00, 0x04, 0x00, 0x0a, 0x00, 0x00, 0x00,
    0x0c, 0x00, 0x00, 0x00, 0x10, 0x00, 0x00, 0x00, 0x03, 0x00, 0x00, 0x00,
    0x01, 0x00, 0x00, 0x00, 0x11, 0x00, 0x00, 0x00, 0x02, 0x00, 0x00, 0x00,
    0x00, 0x00, 0x00, 0x00, 0x10, 0x00, 0x00, 0x00, 0xba, 0xff, 0xff, 0xff,
    0x1c, 0x00, 0x00, 0x00, 0x00, 0x00, 0x00, 0x3b, 0x1c, 0x00, 0x00, 0x00,
    0x20, 0x00, 0x00, 0x00, 0x02, 0x00, 0x00, 0x00, 0x00, 0x00, 0x06, 0x00,
    0x08, 0x00, 0x04, 0x00, 0x06, 0x00, 0x00, 0x00, 0x04, 0x00, 0x00, 0x00,
    0x01, 0x00, 0x00, 0x00, 0x10, 0x00, 0x00, 0x00, 0x04, 0x00, 0x00, 0x00,
    0x0f, 0x00, 0x00, 0x00, 0x03, 0x00, 0x00, 0x00, 0x03, 0x00, 0x00, 0x00,
    0x04, 0x00, 0x00, 0x00, 0x00, 0x00, 0x0e, 0x00, 0x1a, 0x00, 0x14, 0x00,
    0x10, 0x00, 0x0c, 0x00, 0x0b, 0x00, 0x04, 0x00, 0x0e, 0x00, 0x00, 0x00,
    0x24, 0x00, 0x00, 0x00, 0x00, 0x00, 0x00, 0x20, 0x24, 0x00, 0x00, 0x00,
    0x28, 0x00, 0x00, 0x00, 0x01, 0x00, 0x00, 0x00, 0x00, 0x00, 0x0e, 0x00,
    0x08, 0x00, 0x00, 0x00, 0x00, 0x00, 0x00, 0x00, 0x00, 0x00, 0x04, 0x00,
    0x0e, 0x00, 0x00, 0x00, 0x01, 0x00, 0x00, 0x00, 0x01, 0x00, 0x00, 0x00,
    0x0f, 0x00, 0x00, 0x00, 0x04, 0x00, 0x00, 0x00, 0x0e, 0x00, 0x00, 0x00,
    0x01, 0x00, 0x00, 0x00, 0x02, 0x00, 0x00, 0x00, 0x02, 0x00, 0x00, 0x00,
    0x00, 0x00, 0x0e, 0x00, 0x16, 0x00, 0x00, 0x00, 0x10, 0x00, 0x0c, 0x00,
    0x0b, 0x00, 0x04, 0x00, 0x0e, 0x00, 0x00, 0x00, 0x18, 0x00, 0x00, 0x00,
    0x00, 0x00, 0x00, 0x37, 0x18, 0x00, 0x00, 0x00, 0x1c, 0x00, 0x00, 0x00,
    0x00, 0x00, 0x06, 0x00, 0x08, 0x00, 0x07, 0x00, 0x06, 0x00, 0x00, 0x00,
    0x00, 0x00, 0x00, 0x02, 0x01, 0x00, 0x00, 0x00, 0x0e, 0x00, 0x00, 0x00,
    0x01, 0x00, 0x00, 0x00, 0x00, 0x00, 0x00, 0x00, 0x01, 0x00, 0x00, 0x00,
    0x18, 0x00, 0x00, 0x00, 0x01, 0x00, 0x00, 0x00, 0x00, 0x00, 0x00, 0x00,
    0x19, 0x00, 0x00, 0x00, 0xd8, 0x14, 0x00, 0x00, 0x68, 0x14, 0x00, 0x00,
    0xfc, 0x13, 0x00, 0x00, 0xb0, 0x13, 0x00, 0x00, 0x64, 0x13, 0x00, 0x00,
    0x18, 0x13, 0x00, 0x00, 0x9c, 0x12, 0x00, 0x00, 0x30, 0x12, 0x00, 0x00,
    0xbc, 0x0f, 0x00, 0x00, 0xd0, 0x0d, 0x00, 0x00, 0x04, 0x0c, 0x00, 0x00,
    0x28, 0x0a, 0x00, 0x00, 0x54, 0x08, 0x00, 0x00, 0x28, 0x07, 0x00, 0x00,
    0xe4, 0x06, 0x00, 0x00, 0x9c, 0x06, 0x00, 0x00, 0x50, 0x06, 0x00, 0x00,
    0xc8, 0x05, 0x00, 0x00, 0x84, 0x04, 0x00, 0x00, 0x40, 0x03, 0x00, 0x00,
    0x1c, 0x02, 0x00, 0x00, 0x90, 0x01, 0x00, 0x00, 0x14, 0x01, 0x00, 0x00,
    0x80, 0x00, 0x00, 0x00, 0x04, 0x00, 0x00, 0x00, 0xa2, 0xeb, 0xff, 0xff,
    0x00, 0x00, 0x00, 0x01, 0x18, 0x00, 0x00, 0x00, 0x20, 0x00, 0x00, 0x00,
    0x3c, 0x00, 0x00, 0x00, 0x19, 0x00, 0x00, 0x00, 0x00, 0x00, 0x00, 0x09,
    0x50, 0x00, 0x00, 0x00, 0x02, 0x00, 0x00, 0x00, 0xff, 0xff, 0xff, 0xff,
    0x23, 0x00, 0x00, 0x00, 0x8c, 0xeb, 0xff, 0xff, 0x08, 0x00, 0x00, 0x00,
    0x10, 0x00, 0x00, 0x00, 0x01, 0x00, 0x00, 0x00, 0x80, 0xff, 0xff, 0xff,
    0xff, 0xff, 0xff, 0xff, 0x01, 0x00, 0x00, 0x00, 0x00, 0x00, 0x80, 0x3b,
    0x19, 0x00, 0x00, 0x00, 0x53, 0x74, 0x61, 0x74, 0x65, 0x66, 0x75, 0x6c,
    0x50, 0x61, 0x72, 0x74, 0x69, 0x74, 0x69, 0x6f, 0x6e, 0x65, 0x64, 0x43,
    0x61, 0x6c, 0x6c, 0x3a, 0x30, 0x00, 0x00, 0x00, 0x02, 0x00, 0x00, 0x00,
    0x01, 0x00, 0x00, 0x00, 0x23, 0x00, 0x00, 0x00, 0x1a, 0xec, 0xff, 0xff,
    0x00, 0x00, 0x00, 0x01, 0x18, 0x00, 0x00, 0x00, 0x20, 0x00, 0x00, 0x00,
    0x3c, 0x00, 0x00, 0x00, 0x18, 0x00, 0x00, 0x00, 0x00, 0x00, 0x00, 0x09,
    0x68, 0x00, 0x00, 0x00, 0x02, 0x00, 0x00, 0x00, 0xff, 0xff, 0xff, 0xff,
    0x23, 0x00, 0x00, 0x00, 0x04, 0xec, 0xff, 0xff, 0x08, 0x00, 0x00, 0x00,
    0x10, 0x00, 0x00, 0x00, 0x01, 0x00, 0x00, 0x00, 0x44, 0x00, 0x00, 0x00,
    0x00, 0x00, 0x00, 0x00, 0x01, 0x00, 0x00, 0x00, 0x6b, 0xae, 0x0d, 0x3e,
    0x32, 0x00, 0x00, 0x00, 0x6d, 0x6f, 0x64, 0x65, 0x6c, 0x2f, 0x6d, 0x6f,
    0x64, 0x65, 0x6c, 0x2f, 0x64, 0x65, 0x6e, 0x73, 0x65, 0x2f, 0x4d, 0x61,
    0x74, 0x4d, 0x75, 0x6c, 0x3b, 0x6d, 0x6f, 0x64, 0x65, 0x6c, 0x2f, 0x6d,
    0x6f, 0x64, 0x65, 0x6c, 0x2f, 0x64, 0x65, 0x6e, 0x73, 0x65, 0x2f, 0x42,
    0x69, 0x61, 0x73, 0x41, 0x64, 0x64, 0x00, 0x00, 0x02, 0x00, 0x00, 0x00,
    0x01, 0x00, 0x00, 0x00, 0x23, 0x00, 0x00, 0x00, 0xaa, 0xec, 0xff, 0xff,
    0x00, 0x00, 0x00, 0x01, 0x18, 0x00, 0x00, 0x00, 0x20, 0x00, 0x00, 0x00,
    0x3c, 0x00, 0x00, 0x00, 0x17, 0x00, 0x00, 0x00, 0x00, 0x00, 0x00, 0x09,
    0x50, 0x00, 0x00, 0x00, 0x02, 0x00, 0x00, 0x00, 0xff, 0xff, 0xff, 0xff,
    0x20, 0x00, 0x00, 0x00, 0x94, 0xec, 0xff, 0xff, 0x08, 0x00, 0x00, 0x00,
    0x10, 0x00, 0x00, 0x00, 0x01, 0x00, 0x00, 0x00, 0x80, 0xff, 0xff, 0xff,
    0xff, 0xff, 0xff, 0xff, 0x01, 0x00, 0x00, 0x00, 0x0f, 0x23, 0xb4, 0x3e,
    0x1b, 0x00, 0x00, 0x00, 0x6d, 0x6f, 0x64, 0x65, 0x6c, 0x2f, 0x6d, 0x6f,
    0x64, 0x65, 0x6c, 0x2f, 0x66, 0x6c, 0x61, 0x74, 0x74, 0x65, 0x6e, 0x2f,
    0x52, 0x65, 0x73, 0x68, 0x61, 0x70, 0x65, 0x00, 0x02, 0x00, 0x00, 0x00,
    0x01, 0x00, 0x00, 0x00, 0x20, 0x00, 0x00, 0x00, 0x22, 0xed, 0xff, 0xff,
    0x00, 0x00, 0x00, 0x01, 0x18, 0x00, 0x00, 0x00, 0x28, 0x00, 0x00, 0x00,
    0x44, 0x00, 0x00, 0x00, 0x16, 0x00, 0x00, 0x00, 0x00, 0x00, 0x00, 0x09,
    0x58, 0x00, 0x00, 0x00, 0x04, 0x00, 0x00, 0x00, 0xff, 0xff, 0xff, 0xff,
    0x01, 0x00, 0x00, 0x00, 0x01, 0x00, 0x00, 0x00, 0x20, 0x00, 0x00, 0x00,
    0x14, 0xed, 0xff, 0xff, 0x08, 0x00, 0x00, 0x00, 0x10, 0x00, 0x00, 0x00,
    0x01, 0x00, 0x00, 0x00, 0x80, 0xff, 0xff, 0xff, 0xff, 0xff, 0xff, 0xff,
    0x01, 0x00, 0x00, 0x00, 0x0f, 0x23, 0xb4, 0x3e, 0x19, 0x00, 0x00, 0x00,
    0x61, 0x76, 0x65, 0x72, 0x61, 0x67, 0x65, 0x5f, 0x70, 0x6f, 0x6f, 0x6c,
    0x69, 0x6e, 0x67, 0x32, 0x64, 0x2f, 0x41, 0x76, 0x67, 0x50, 0x6f, 0x6f,
    0x6c, 0x00, 0x00, 0x00, 0x04, 0x00, 0x00, 0x00, 0x01, 0x00, 0x00, 0x00,
    0x01, 0x00, 0x00, 0x00, 0x01, 0x00, 0x00, 0x00, 0x20, 0x00, 0x00, 0x00,
    0xaa, 0xed, 0xff, 0xff, 0x00, 0x00, 0x00, 0x01, 0x18, 0x00, 0x00, 0x00,
    0x28, 0x00, 0x00, 0x00, 0x44, 0x00, 0x00, 0x00, 0x15, 0x00, 0x00, 0x00,
    0x00, 0x00, 0x00, 0x09, 0xf0, 0x00, 0x00, 0x00, 0x04, 0x00, 0x00, 0x00,
    0xff, 0xff, 0xff, 0xff, 0x14, 0x00, 0x00, 0x00, 0x14, 0x00, 0x00, 0x00,
    0x20, 0x00, 0x00, 0x00, 0x9c, 0xed, 0xff, 0xff, 0x08, 0x00, 0x00, 0x00,
    0x10, 0x00, 0x00, 0x00, 0x01, 0x00, 0x00, 0x00, 0x80, 0xff, 0xff, 0xff,
    0xff, 0xff, 0xff, 0xff, 0x01, 0x00, 0x00, 0x00, 0x0f, 0x23, 0xb4, 0x3e,
    0xb1, 0x00, 0x00, 0x00, 0x6d, 0x6f, 0x64, 0x65, 0x6c, 0x2f, 0x6d, 0x6f,
    0x64, 0x65, 0x6c, 0x2f, 0x72, 0x65, 0x5f, 0x6c, 0x75, 0x5f, 0x32, 0x2f,
    0x52, 0x65, 0x6c, 0x75, 0x3b, 0x6d, 0x6f, 0x64, 0x65, 0x6c, 0x2f, 0x6d,
    0x6f, 0x64, 0x65, 0x6c, 0x2f, 0x62, 0x61, 0x74, 0x63, 0x68, 0x5f, 0x6e,
    0x6f, 0x72, 0x6d, 0x61, 0x6c, 0x69, 0x7a, 0x61, 0x74, 0x69, 0x6f, 0x6e,
    0x5f, 0x32, 0x2f, 0x46, 0x75, 0x73, 0x65, 0x64, 0x42, 0x61, 0x74, 0x63,
    0x68, 0x4e, 0x6f, 0x72, 0x6d, 0x56, 0x33, 0x3b, 0x6d, 0x6f, 0x64, 0x65,
    0x6c, 0x2f, 0x6d, 0x6f, 0x64, 0x65, 0x6c, 0x2f, 0x63, 0x6f, 0x6e, 0x76,
    0x32, 0x64, 0x5f, 0x31, 0x2f, 0x42, 0x69, 0x61, 0x73, 0x41, 0x64, 0x64,
    0x2f, 0x52, 0x65, 0x61, 0x64, 0x56, 0x61, 0x72, 0x69, 0x61, 0x62, 0x6c,
    0x65, 0x4f, 0x70, 0x3b, 0x6d, 0x6f, 0x64, 0x65, 0x6c, 0x2f, 0x6d, 0x6f,
    0x64, 0x65, 0x6c, 0x2f, 0x63, 0x6f, 0x6e, 0x76, 0x32, 0x64, 0x5f, 0x31,
    0x2f, 0x42, 0x69, 0x61, 0x73, 0x41, 0x64, 0x64, 0x3b, 0x6d, 0x6f, 0x64,
    0x65, 0x6c, 0x2f, 0x6d, 0x6f, 0x64, 0x65, 0x6c, 0x2f, 0x63, 0x6f, 0x6e,
    0x76, 0x32, 0x64, 0x5f, 0x31, 0x2f, 0x43, 0x6f, 0x6e, 0x76, 0x32, 0x44,
    0x31, 0x00, 0x00, 0x00, 0x04, 0x00, 0x00, 0x00, 0x01, 0x00, 0x00, 0x00,
    0x14, 0x00, 0x00, 0x00, 0x14, 0x00, 0x00, 0x00, 0x20, 0x00, 0x00, 0x00,
    0xca, 0xee, 0xff, 0xff, 0x00, 0x00, 0x00, 0x01, 0x18, 0x00, 0x00, 0x00,
    0x28, 0x00, 0x00, 0x00, 0x48, 0x00, 0x00, 0x00, 0x14, 0x00, 0x00, 0x00,
    0x00, 0x00, 0x00, 0x09, 0x10, 0x01, 0x00, 0x00, 0x04, 0x00, 0x00, 0x00,
    0xff, 0xff, 0xff, 0xff, 0x14, 0x00, 0x00, 0x00, 0x14, 0x00, 0x00, 0x00,
    0x10, 0x00, 0x00, 0x00, 0xbc, 0xee, 0xff, 0xff, 0x08, 0x00, 0x00, 0x00,
    0x14, 0x00, 0x00, 0x00, 0x01, 0x00, 0x00, 0x00, 0x80, 0xff, 0xff, 0xff,
    0xff, 0xff, 0xff, 0xff, 0x00, 0x00, 0x00, 0x00, 0x01, 0x00, 0x00, 0x00,
    0xbe, 0x12, 0xf8, 0x3c, 0xcc, 0x00, 0x00, 0x00, 0x6d, 0x6f, 0x64, 0x65,
    0x6c, 0x2f, 0x6d, 0x6f, 0x64, 0x65, 0x6c, 0x2f, 0x72, 0x65, 0x5f, 0x6c,
    0x75, 0x5f, 0x31, 0x2f, 0x52, 0x65, 0x6c, 0x75, 0x3b, 0x6d, 0x6f, 0x64,
    0x65, 0x6c, 0x2f, 0x6d, 0x6f, 0x64, 0x65, 0x6c, 0x2f, 0x62, 0x61, 0x74,
    0x63, 0x68, 0x5f, 0x6e, 0x6f, 0x72, 0x6d, 0x61, 0x6c, 0x69, 0x7a, 0x61,
    0x74, 0x69, 0x6f, 0x6e, 0x5f, 0x31, 0x2f, 0x46, 0x75, 0x73, 0x65, 0x64,
    0x42, 0x61, 0x74, 0x63, 0x68, 0x4e, 0x6f, 0x72, 0x6d, 0x56, 0x33, 0x3b,
    0x6d, 0x6f, 0x64, 0x65, 0x6c, 0x2f, 0x6d, 0x6f, 0x64, 0x65, 0x6c, 0x2f,
    0x64, 0x65, 0x70, 0x74, 0x68, 0x77, 0x69, 0x73, 0x65, 0x5f, 0x63, 0x6f,
    0x6e, 0x76, 0x32, 0x64, 0x2f, 0x64, 0x65, 0x70, 0x74, 0x68, 0x77, 0x69,
    0x73, 0x65, 0x3b, 0x6d, 0x6f, 0x64, 0x65, 0x6c, 0x2f, 0x6d, 0x6f, 0x64,
    0x65, 0x6c, 0x2f, 0x64, 0x65, 0x70, 0x74, 0x68, 0x77, 0x69, 0x73, 0x65,
    0x5f, 0x63, 0x6f, 0x6e, 0x76, 0x32, 0x64, 0x2f, 0x42, 0x69, 0x61, 0x73,
    0x41, 0x64, 0x64, 0x2f, 0x52, 0x65, 0x61, 0x64, 0x56, 0x61, 0x72, 0x69,
    0x61, 0x62, 0x6c, 0x65, 0x4f, 0x70, 0x3b, 0x6d, 0x6f, 0x64, 0x65, 0x6c,
    0x2f, 0x6d, 0x6f, 0x64, 0x65, 0x6c, 0x2f, 0x64, 0x65, 0x70, 0x74, 0x68,
    0x77, 0x69, 0x73, 0x65, 0x5f, 0x63, 0x6f, 0x6e, 0x76, 0x32, 0x64, 0x2f,
    0x42, 0x69, 0x61, 0x73, 0x41, 0x64, 0x64, 0x31, 0x00, 0x00, 0x00, 0x00,
    0x04, 0x00, 0x00, 0x00, 0x01, 0x00, 0x00, 0x00, 0x14, 0x00, 0x00, 0x00,
    0x14, 0x00, 0x00, 0x00, 0x10, 0x00, 0x00, 0x00, 0x0a, 0xf0, 0xff, 0xff,
    0x00, 0x00, 0x00, 0x01, 0x18, 0x00, 0x00, 0x00, 0x28, 0x00, 0x00, 0x00,
    0x48, 0x00, 0x00, 0x00, 0x13, 0x00, 0x00, 0x00, 0x00, 0x00, 0x00, 0x09,
    0x10, 0x01, 0x00, 0x00, 0x04, 0x00, 0x00, 0x00, 0xff, 0xff, 0xff, 0xff,
    0x14, 0x00, 0x00, 0x00, 0x14, 0x00, 0x00, 0x00, 0x10, 0x00, 0x00, 0x00,
    0xfc, 0xef, 0xff, 0xff, 0x08, 0x00, 0x00, 0x00, 0x14, 0x00, 0x00, 0x00,
    0x01, 0x00, 0x00, 0x00, 0x80, 0xff, 0xff, 0xff, 0xff, 0xff, 0xff, 0xff,
    0x00, 0x00, 0x00, 0x00, 0x01, 0x00, 0x00, 0x00, 0x90, 0x1b, 0xf7, 0x3c,
    0xce, 0x00, 0x00, 0x00, 0x6d, 0x6f, 0x64, 0x65, 0x6c, 0x2f, 0x6d, 0x6f,
    0x64, 0x65, 0x6c, 0x2f, 0x72, 0x65, 0x5f, 0x6c, 0x75, 0x2f, 0x52, 0x65,
    0x6c, 0x75, 0x3b, 0x6d, 0x6f, 0x64, 0x65, 0x6c, 0x2f, 0x6d, 0x6f, 0x64,
    0x65, 0x6c, 0x2f, 0x62, 0x61, 0x74, 0x63, 0x68, 0x5f, 0x6e, 0x6f, 0x72,
    0x6d, 0x61, 0x6c, 0x69, 0x7a, 0x61, 0x74, 0x69, 0x6f, 0x6e, 0x2f, 0x46,
    0x75, 0x73, 0x65, 0x64, 0x42, 0x61, 0x74, 0x63, 0x68, 0x4e, 0x6f, 0x72,
    0x6d, 0x56, 0x33, 0x3b, 0x6d, 0x6f, 0x64, 0x65, 0x6c, 0x2f, 0x6d, 0x6f,
    0x64, 0x65, 0x6c, 0x2f, 0x63, 0x6f, 0x6e, 0x76, 0x32, 0x64, 0x2f, 0x42,
    0x69, 0x61, 0x73, 0x41, 0x64, 0x64, 0x2f, 0x52, 0x65, 0x61, 0x64, 0x56,
    0x61, 0x72, 0x69, 0x61, 0x62, 0x6c, 0x65, 0x4f, 0x70, 0x3b, 0x6d, 0x6f,
    0x64, 0x65, 0x6c, 0x2f, 0x6d, 0x6f, 0x64, 0x65, 0x6c, 0x2f, 0x63, 0x6f,
    0x6e, 0x76, 0x32, 0x64, 0x2f, 0x42, 0x69, 0x61, 0x73, 0x41, 0x64, 0x64,
    0x3b, 0x6d, 0x6f, 0x64, 0x65, 0x6c, 0x2f, 0x6d, 0x6f, 0x64, 0x65, 0x6c,
    0x2f, 0x64, 0x65, 0x70, 0x74, 0x68, 0x77, 0x69, 0x73, 0x65, 0x5f, 0x63,
    0x6f, 0x6e, 0x76, 0x32, 0x64, 0x2f, 0x64, 0x65, 0x70, 0x74, 0x68, 0x77,
    0x69, 0x73, 0x65, 0x3b, 0x6d, 0x6f, 0x64, 0x65, 0x6c, 0x2f, 0x6d, 0x6f,
    0x64, 0x65, 0x6c, 0x2f, 0x63, 0x6f, 0x6e, 0x76, 0x32, 0x64, 0x2f, 0x43,
    0x6f, 0x6e, 0x76, 0x32, 0x44, 0x31, 0x00, 0x00, 0x04, 0x00, 0x00, 0x00,
    0x01, 0x00, 0x00, 0x00, 0x14, 0x00, 0x00, 0x00, 0x14, 0x00, 0x00, 0x00,
    0x10, 0x00, 0x00, 0x00, 0x4a, 0xf1, 0xff, 0xff, 0x00, 0x00, 0x00, 0x01,
    0x18, 0x00, 0x00, 0x00, 0x28, 0x00, 0x00, 0x00, 0x44, 0x00, 0x00, 0x00,
    0x12, 0x00, 0x00, 0x00, 0x00, 0x00, 0x00, 0x09, 0x54, 0x00, 0x00, 0x00,
    0x04, 0x00, 0x00, 0x00, 0xff, 0xff, 0xff, 0xff, 0x28, 0x00, 0x00, 0x00,
    0x28, 0x00, 0x00, 0x00, 0x01, 0x00, 0x00, 0x00, 0x3c, 0xf1, 0xff, 0xff,
    0x08, 0x00, 0x00, 0x00, 0x10, 0x00, 0x00, 0x00, 0x01, 0x00, 0x00, 0x00,
    0xfd, 0xff, 0xff, 0xff, 0xff, 0xff, 0xff, 0xff, 0x01, 0x00, 0x00, 0x00,
    0xa1, 0xa0, 0xa0, 0x3e, 0x15, 0x00, 0x00, 0x00, 0x6d, 0x6f, 0x64, 0x65,
    0x6c, 0x2f, 0x72, 0x65, 0x73, 0x68, 0x61, 0x70, 0x65, 0x2f, 0x52, 0x65,
    0x73, 0x68, 0x61, 0x70, 0x65, 0x00, 0x00, 0x00, 0x04, 0x00, 0x00, 0x00,
    0x01, 0x00, 0x00, 0x00, 0x28, 0x00, 0x00, 0x00, 0x28, 0x00, 0x00, 0x00,
    0x01, 0x00, 0x00, 0x00, 0x3a, 0xf2, 0xff, 0xff, 0x00, 0x00, 0x00, 0x01,
    0x14, 0x00, 0x00, 0x00, 0x14, 0x00, 0x00, 0x00, 0x11, 0x00, 0x00, 0x00,
    0x00, 0x00, 0x00, 0x02, 0x28, 0x00, 0x00, 0x00, 0x24, 0xf2, 0xff, 0xff,
    0x1b, 0x00, 0x00, 0x00, 0x6d, 0x6f, 0x64, 0x65, 0x6c, 0x2f, 0x72, 0x65,
    0x73, 0x68, 0x61, 0x70, 0x65, 0x2f, 0x52, 0x65, 0x73, 0x68, 0x61, 0x70,
    0x65, 0x2f, 0x73, 0x68, 0x61, 0x70, 0x65, 0x00, 0x01, 0x00, 0x00, 0x00,
    0x04, 0x00, 0x00, 0x00, 0x82, 0xf2, 0xff, 0xff, 0x00, 0x00, 0x00, 0x01,
    0x14, 0x00, 0x00, 0x00, 0x14, 0x00, 0x00, 0x00, 0x10, 0x00, 0x00, 0x00,
    0x00, 0x00, 0x00, 0x02, 0x28, 0x00, 0x00, 0x00, 0x6c, 0xf2, 0xff, 0xff,
    0x1b, 0x00, 0x00, 0x00, 0x6d, 0x6f, 0x64, 0x65, 0x6c, 0x2f, 0x72, 0x65,
    0x73, 0x68, 0x61, 0x70, 0x65, 0x2f, 0x73, 0x74, 0x72, 0x69, 0x64, 0x65,
    0x64, 0x5f, 0x73, 0x6c, 0x69, 0x63, 0x65, 0x00, 0x00, 0x00, 0x00, 0x00,
    0xc6, 0xf2, 0xff, 0xff, 0x00, 0x00, 0x00, 0x01, 0x14, 0x00, 0x00, 0x00,
    0x14, 0x00, 0x00, 0x00, 0x0f, 0x00, 0x00, 0x00, 0x00, 0x00, 0x00, 0x02,
    0x20, 0x00, 0x00, 0x00, 0xb0, 0xf2, 0xff, 0xff, 0x13, 0x00, 0x00, 0x00,
    0x6d, 0x6f, 0x64, 0x65, 0x6c, 0x2f, 0x72, 0x65, 0x73, 0x68, 0x61, 0x70,
    0x65, 0x2f, 0x53, 0x68, 0x61, 0x70, 0x65, 0x00, 0x01, 0x00, 0x00, 0x00,
    0x02, 0x00, 0x00, 0x00, 0x06, 0xf3, 0xff, 0xff, 0x00, 0x00, 0x00, 0x01,
    0x14, 0x00, 0x00, 0x00, 0xe8, 0x00, 0x00, 0x00, 0x0e, 0x00, 0x00, 0x00,
    0x00, 0x00, 0x00, 0x09, 0xfc, 0x00, 0x00, 0x00, 0x74, 0xf2, 0xff, 0xff,
    0x08, 0x00, 0x00, 0x00, 0x8c, 0x00, 0x00, 0x00, 0x10, 0x00, 0x00, 0x00,
    0x00, 0x00, 0x00, 0x00, 0x00, 0x00, 0x00, 0x00, 0x00, 0x00, 0x00, 0x00,
    0x00, 0x00, 0x00, 0x00, 0x00, 0x00, 0x00, 0x00, 0x00, 0x00, 0x00, 0x00,
    0x00, 0x00, 0x00, 0x00, 0x00, 0x00, 0x00, 0x00, 0x00, 0x00, 0x00, 0x00,
    0x00, 0x00, 0x00, 0x00, 0x00, 0x00, 0x00, 0x00, 0x00, 0x00, 0x00, 0x00,
    0x00, 0x00, 0x00, 0x00, 0x00, 0x00, 0x00, 0x00, 0x00, 0x00, 0x00, 0x00,
    0x00, 0x00, 0x00, 0x00, 0x00, 0x00, 0x00, 0x00, 0x00, 0x00, 0x00, 0x00,
    0x00, 0x00, 0x00, 0x00, 0x00, 0x00, 0x00, 0x00, 0x00, 0x00, 0x00, 0x00,
    0x00, 0x00, 0x00, 0x00, 0x00, 0x00, 0x00, 0x00, 0x00, 0x00, 0x00, 0x00,
    0x00, 0x00, 0x00, 0x00, 0x00, 0x00, 0x00, 0x00, 0x00, 0x00, 0x00, 0x00,
    0x00, 0x00, 0x00, 0x00, 0x00, 0x00, 0x00, 0x00, 0x00, 0x00, 0x00, 0x00,
    0x00, 0x00, 0x00, 0x00, 0x00, 0x00, 0x00, 0x00, 0x00, 0x00, 0x00, 0x00,
    0x10, 0x00, 0x00, 0x00, 0xf4, 0xe7, 0x21, 0x39, 0xed, 0xe4, 0x6b, 0x39,
    0xf5, 0xc6, 0xc8, 0x39, 0xd2, 0xa8, 0x57, 0x39, 0xc7, 0x80, 0x43, 0x38,
    0x9f, 0x35, 0xa1, 0x39, 0xa1, 0xe5, 0x15, 0x39, 0xac, 0xbe, 0x28, 0x38,
    0x0d, 0xeb, 0xaf, 0x39, 0x39, 0xeb, 0x22, 0x38, 0x83, 0x80, 0xfa, 0x39,
    0x9d, 0x21, 0x8a, 0x39, 0x75, 0x99, 0x38, 0x39, 0x0a, 0x6b, 0x70, 0x39,
    0x25, 0xb4, 0xb6, 0x39, 0xdd, 0x44, 0xdb, 0x38, 0x19, 0x00, 0x00, 0x00,
    0x6d, 0x6f, 0x64, 0x65, 0x6c, 0x2f, 0x6d, 0x6f, 0x64, 0x65, 0x6c, 0x2f,
    0x63, 0x6f, 0x6e, 0x76, 0x32, 0x64, 0x2f, 0x43, 0x6f, 0x6e, 0x76, 0x32,
    0x44, 0x00, 0x00, 0x00, 0x04, 0x00, 0x00, 0x00, 0x10, 0x00, 0x00, 0x00,
    0x03, 0x00, 0x00, 0x00, 0x03, 0x00, 0x00, 0x00, 0x01, 0x00, 0x00, 0x00,
    0x2e, 0xf4, 0xff, 0xff, 0x00, 0x00, 0x00, 0x01, 0x14, 0x00, 0x00, 0x00,
    0xe8, 0x00, 0x00, 0x00, 0x0d, 0x00, 0x00, 0x00, 0x00, 0x00, 0x00, 0x02,
    0xb0, 0x01, 0x00, 0x00, 0x9c, 0xf3, 0xff, 0xff, 0x08, 0x00, 0x00, 0x00,
    0x8c, 0x00, 0x00, 0x00, 0x10, 0x00, 0x00, 0x00, 0x00, 0x00, 0x00, 0x00,
    0x00, 0x00, 0x00, 0x00, 0x00, 0x00, 0x00, 0x00, 0x00, 0x00, 0x00, 0x00,
    0x00, 0x00, 0x00, 0x00, 0x00, 0x00, 0x00, 0x00, 0x00, 0x00, 0x00, 0x00,
    0x00, 0x00, 0x00, 0x00, 0x00, 0x00, 0x00, 0x00, 0x00, 0x00, 0x00, 0x00,
    0x00, 0x00, 0x00, 0x00, 0x00, 0x00, 0x00, 0x00, 0x00, 0x00, 0x00, 0x00,
    0x00, 0x00, 0x00, 0x00, 0x00, 0x00, 0x00, 0x00, 0x00, 0x00, 0x00, 0x00,
    0x00, 0x00, 0x00, 0x00, 0x00, 0x00, 0x00, 0x00, 0x00, 0x00, 0x00, 0x00,
    0x00, 0x00, 0x00, 0x00, 0x00, 0x00, 0x00, 0x00, 0x00, 0x00, 0x00, 0x00,
    0x00, 0x00, 0x00, 0x00, 0x00, 0x00, 0x00, 0x00, 0x00, 0x00, 0x00, 0x00,
    0x00, 0x00, 0x00, 0x00, 0x00, 0x00, 0x00, 0x00, 0x00, 0x00, 0x00, 0x00,
    0x00, 0x00, 0x00, 0x00, 0x00, 0x00, 0x00, 0x00, 0x00, 0x00, 0x00, 0x00,
    0x00, 0x00, 0x00, 0x00, 0x00, 0x00, 0x00, 0x00, 0x10, 0x00, 0x00, 0x00,
    0x1f, 0x2d, 0x4b, 0x38, 0x18, 0x03, 0x94, 0x38, 0xa7, 0xf4, 0xfb, 0x38,
    0xd4, 0x50, 0x87, 0x38, 0x50, 0x56, 0x75, 0x37, 0x55, 0x4d, 0xca, 0x38,
    0x25, 0x1b, 0x3c, 0x38, 0x1a, 0xc2, 0x53, 0x37, 0x93, 0xc2, 0xdc, 0x38,
    0x7a, 0x72, 0x4c, 0x37, 0x80, 0x2d, 0x1d, 0x39, 0x5c, 0x57, 0xad, 0x38,
    0x7a, 0xa7, 0x67, 0x38, 0xc0, 0xd9, 0x96, 0x38, 0x75, 0x46, 0xe5, 0x38,
    0x9f, 0x94, 0x09, 0x38, 0xcd, 0x00, 0x00, 0x00, 0x6d, 0x6f, 0x64, 0x65,
    0x6c, 0x2f, 0x6d, 0x6f, 0x64, 0x65, 0x6c, 0x2f, 0x72, 0x65, 0x5f, 0x6c,
    0x75, 0x2f, 0x52, 0x65, 0x6c, 0x75, 0x3b, 0x6d, 0x6f, 0x64, 0x65, 0x6c,
    0x2f, 0x6d, 0x6f, 0x64, 0x65, 0x6c, 0x2f, 0x62, 0x61, 0x74, 0x63, 0x68,
    0x5f, 0x6e, 0x6f, 0x72, 0x6d, 0x61, 0x6c, 0x69, 0x7a, 0x61, 0x74, 0x69,
    0x6f, 0x6e, 0x2f, 0x46, 0x75, 0x73, 0x65, 0x64, 0x42, 0x61, 0x74, 0x63,
    0x68, 0x4e, 0x6f, 0x72, 0x6d, 0x56, 0x33, 0x3b, 0x6d, 0x6f, 0x64, 0x65,
    0x6c, 0x2f, 0x6d, 0x6f, 0x64, 0x65, 0x6c, 0x2f, 0x63, 0x6f, 0x6e, 0x76,
    0x32, 0x64, 0x2f, 0x42, 0x69, 0x61, 0x73, 0x41, 0x64, 0x64, 0x2f, 0x52,
    0x65, 0x61, 0x64, 0x56, 0x61, 0x72, 0x69, 0x61, 0x62, 0x6c, 0x65, 0x4f,
    0x70, 0x3b, 0x6d, 0x6f, 0x64, 0x65, 0x6c, 0x2f, 0x6d, 0x6f, 0x64, 0x65,
    0x6c, 0x2f, 0x63, 0x6f, 0x6e, 0x76, 0x32, 0x64, 0x2f, 0x42, 0x69, 0x61,
    0x73, 0x41, 0x64, 0x64, 0x3b, 0x6d, 0x6f, 0x64, 0x65, 0x6c, 0x2f, 0x6d,
    0x6f, 0x64, 0x65, 0x6c, 0x2f, 0x64, 0x65, 0x70, 0x74, 0x68, 0x77, 0x69,
    0x73, 0x65, 0x5f, 0x63, 0x6f, 0x6e, 0x76, 0x32, 0x64, 0x2f, 0x64, 0x65,
    0x70, 0x74, 0x68, 0x77, 0x69, 0x73, 0x65, 0x3b, 0x6d, 0x6f, 0x64, 0x65,
    0x6c, 0x2f, 0x6d, 0x6f, 0x64, 0x65, 0x6c, 0x2f, 0x63, 0x6f, 0x6e, 0x76,
    0x32, 0x64, 0x2f, 0x43, 0x6f, 0x6e, 0x76, 0x32, 0x44, 0x00, 0x00, 0x00,
    0x01, 0x00, 0x00, 0x00, 0x10, 0x00, 0x00, 0x00, 0xfe, 0xf5, 0xff, 0xff,
    0x00, 0x00, 0x00, 0x01, 0x28, 0x00, 0x00, 0x00, 0x00, 0x01, 0x00, 0x00,
    0x0c, 0x00, 0x00, 0x00, 0x00, 0x00, 0x00, 0x09, 0xac, 0x01, 0x00, 0x00,
    0x00, 0x00, 0x12, 0x00, 0x10, 0x00, 0x00, 0x00, 0x00, 0x00, 0x0c, 0x00,
    0x08, 0x00, 0x00, 0x00, 0x00, 0x00, 0x04, 0x00, 0x12, 0x00, 0x00, 0x00,
    0x03, 0x00, 0x00, 0x00, 0x08, 0x00, 0x00, 0x00, 0x8c, 0x00, 0x00, 0x00,
    0x10, 0x00, 0x00, 0x00, 0x00, 0x00, 0x00, 0x00, 0x00, 0x00, 0x00, 0x00,
    0x00, 0x00, 0x00, 0x00, 0x00, 0x00, 0x00, 0x00, 0x00, 0x00, 0x00, 0x00,
    0x00, 0x00, 0x00, 0x00, 0x00, 0x00, 0x00, 0x00, 0x00, 0x00, 0x00, 0x00,
    0x00, 0x00, 0x00, 0x00, 0x00, 0x00, 0x00, 0x00, 0x00, 0x00, 0x00, 0x00,
    0x00, 0x00, 0x00, 0x00, 0x00, 0x00, 0x00, 0x00, 0x00, 0x00, 0x00, 0x00,
    0x00, 0x00, 0x00, 0x00, 0x00, 0x00, 0x00, 0x00, 0x00, 0x00, 0x00, 0x00,
    0x00, 0x00, 0x00, 0x00, 0x00, 0x00, 0x00, 0x00, 0x00, 0x00, 0x00, 0x00,
    0x00, 0x00, 0x00, 0x00, 0x00, 0x00, 0x00, 0x00, 0x00, 0x00, 0x00, 0x00,
    0x00, 0x00, 0x00, 0x00, 0x00, 0x00, 0x00, 0x00, 0x00, 0x00, 0x00, 0x00,
    0x00, 0x00, 0x00, 0x00, 0x00, 0x00, 0x00, 0x00, 0x00, 0x00, 0x00, 0x00,
    0x00, 0x00, 0x00, 0x00, 0x00, 0x00, 0x00, 0x00, 0x00, 0x00, 0x00, 0x00,
    0x00, 0x00, 0x00, 0x00, 0x10, 0x00, 0x00, 0x00, 0x41, 0x37, 0x32, 0x3c,
    0xc2, 0xd4, 0xb6, 0x3b, 0x77, 0x9f, 0xab, 0x3b, 0x39, 0xc6, 0x0d, 0x3c,
    0x60, 0x03, 0x9e, 0x3c, 0x22, 0xeb, 0x9d, 0x3b, 0x46, 0xed, 0x82, 0x3c,
    0x8b, 0xc8, 0x9f, 0x3c, 0x3e, 0x04, 0xe1, 0x3b, 0xf9, 0x47, 0x5d, 0x3c,
    0x16, 0xd2, 0x44, 0x3b, 0xa0, 0xd6, 0x05, 0x3c, 0x3c, 0x41, 0x0b, 0x3c,
    0x94, 0x6f, 0x3b, 0x3c, 0xbb, 0x6b, 0xa1, 0x3b, 0xc5, 0xa8, 0x80, 0x3c,
    0xb2, 0x00, 0x00, 0x00, 0x6d, 0x6f, 0x64, 0x65, 0x6c, 0x2f, 0x6d, 0x6f,
    0x64, 0x65, 0x6c, 0x2f, 0x62, 0x61, 0x74, 0x63, 0x68, 0x5f, 0x6e, 0x6f,
    0x72, 0x6d, 0x61, 0x6c, 0x69, 0x7a, 0x61, 0x74, 0x69, 0x6f, 0x6e, 0x5f,
    0x31, 0x2f, 0x46, 0x75, 0x73, 0x65, 0x64, 0x42, 0x61, 0x74, 0x63, 0x68,
    0x4e, 0x6f, 0x72, 0x6d, 0x56, 0x33, 0x3b, 0x6d, 0x6f, 0x64, 0x65, 0x6c,
    0x2f, 0x6d, 0x6f, 0x64, 0x65, 0x6c, 0x2f, 0x64, 0x65, 0x70, 0x74, 0x68,
    0x77, 0x69, 0x73, 0x65, 0x5f, 0x63, 0x6f, 0x6e, 0x76, 0x32, 0x64, 0x2f,
    0x64, 0x65, 0x70, 0x74, 0x68, 0x77, 0x69, 0x73, 0x65, 0x3b, 0x6d, 0x6f,
    0x64, 0x65, 0x6c, 0x2f, 0x6d, 0x6f, 0x64, 0x65, 0x6c, 0x2f, 0x64, 0x65,
    0x70, 0x74, 0x68, 0x77, 0x69, 0x73, 0x65, 0x5f, 0x63, 0x6f, 0x6e, 0x76,
    0x32, 0x64, 0x2f, 0x42, 0x69, 0x61, 0x73, 0x41, 0x64, 0x64, 0x2f, 0x52,
    0x65, 0x61, 0x64, 0x56, 0x61, 0x72, 0x69, 0x61, 0x62, 0x6c, 0x65, 0x4f,
    0x70, 0x3b, 0x6d, 0x6f, 0x64, 0x65, 0x6c, 0x2f, 0x6d, 0x6f, 0x64, 0x65,
    0x6c, 0x2f, 0x64, 0x65, 0x70, 0x74, 0x68, 0x77, 0x69, 0x73, 0x65, 0x5f,
    0x63, 0x6f, 0x6e, 0x76, 0x32, 0x64, 0x2f, 0x42, 0x69, 0x61, 0x73, 0x41,
    0x64, 0x64, 0x00, 0x00, 0x04, 0x00, 0x00, 0x00, 0x01, 0x00, 0x00, 0x00,
    0x03, 0x00, 0x00, 0x00, 0x03, 0x00, 0x00, 0x00, 0x10, 0x00, 0x00, 0x00,
    0xd6, 0xf7, 0xff, 0xff, 0x00, 0x00, 0x00, 0x01, 0x14, 0x00, 0x00, 0x00,
    0xe4, 0x00, 0x00, 0x00, 0x0b, 0x00, 0x00, 0x00, 0x00, 0x00, 0x00, 0x02,
    0xa8, 0x01, 0x00, 0x00, 0x44, 0xf7, 0xff, 0xff, 0x08, 0x00, 0x00, 0x00,
    0x88, 0x00, 0x00, 0x00, 0x10, 0x00, 0x00, 0x00, 0x00, 0x00, 0x00, 0x00,
    0x00, 0x00, 0x00, 0x00, 0x00, 0x00, 0x00, 0x00, 0x00, 0x00, 0x00, 0x00,
    0x00, 0x00, 0x00, 0x00, 0x00, 0x00, 0x00, 0x00, 0x00, 0x00, 0x00, 0x00,
    0x00, 0x00, 0x00, 0x00, 0x00, 0x00, 0x00, 0x00, 0x00, 0x00, 0x00, 0x00,
    0x00, 0x00, 0x00, 0x00, 0x00, 0x00, 0x00, 0x00, 0x00, 0x00, 0x00, 0x00,
    0x00, 0x00, 0x00, 0x00, 0x00, 0x00, 0x00, 0x00, 0x00, 0x00, 0x00, 0x00,
    0x00, 0x00, 0x00, 0x00, 0x00, 0x00, 0x00, 0x00, 0x00, 0x00, 0x00, 0x00,
    0x00, 0x00, 0x00, 0x00, 0x00, 0x00, 0x00, 0x00, 0x00, 0x00, 0x00, 0x00,
    0x00, 0x00, 0x00, 0x00, 0x00, 0x00, 0x00, 0x00, 0x00, 0x00, 0x00, 0x00,
    0x00, 0x00, 0x00, 0x00, 0x00, 0x00, 0x00, 0x00, 0x00, 0x00, 0x00, 0x00,
    0x00, 0x00, 0x00, 0x00, 0x00, 0x00, 0x00, 0x00, 0x00, 0x00, 0x00, 0x00,
    0x00, 0x00, 0x00, 0x00, 0x10, 0x00, 0x00, 0x00, 0x80, 0x06, 0xac, 0x39,
    0xf6, 0x7a, 0x30, 0x39, 0x56, 0xa9, 0x25, 0x39, 0x85, 0xd9, 0x88, 0x39,
    0x45, 0x86, 0x18, 0x3a, 0xde, 0x6e, 0x18, 0x39, 0x0e, 0xc2, 0xfc, 0x39,
    0xb2, 0x3b, 0x1a, 0x3a, 0x52, 0x33, 0x59, 0x39, 0x44, 0x98, 0xd5, 0x39,
    0xe4, 0xfb, 0xbd, 0x38, 0x7d, 0x30, 0x81, 0x39, 0xef, 0x6a, 0x86, 0x39,
    0xd6, 0xec, 0xb4, 0x39, 0x53, 0xd0, 0x1b, 0x39, 0x60, 0x61, 0xf8, 0x39,
    0xcb, 0x00, 0x00, 0x00, 0x6d, 0x6f, 0x64, 0x65, 0x6c, 0x2f, 0x6d, 0x6f,
    0x64, 0x65, 0x6c, 0x2f, 0x72, 0x65, 0x5f, 0x6c, 0x75, 0x5f, 0x31, 0x2f,
    0x52, 0x65, 0x6c, 0x75, 0x3b, 0x6d, 0x6f, 0x64, 0x65, 0x6c, 0x2f, 0x6d,
    0x6f, 0x64, 0x65, 0x6c, 0x2f, 0x62, 0x61, 0x74, 0x63, 0x68, 0x5f, 0x6e,
    0x6f, 0x72, 0x6d, 0x61, 0x6c, 0x69, 0x7a, 0x61, 0x74, 0x69, 0x6f, 0x6e,
    0x5f, 0x31, 0x2f, 0x46, 0x75, 0x73, 0x65, 0x64, 0x42, 0x61, 0x74, 0x63,
    0x68, 0x4e, 0x6f, 0x72, 0x6d, 0x56, 0x33, 0x3b, 0x6d, 0x6f, 0x64, 0x65,
    0x6c, 0x2f, 0x6d, 0x6f, 0x64, 0x65, 0x6c, 0x2f, 0x64, 0x65, 0x70, 0x74,
    0x68, 0x77, 0x69, 0x73, 0x65, 0x5f, 0x63, 0x6f, 0x6e, 0x76, 0x32, 0x64,
    0x2f, 0x64, 0x65, 0x70, 0x74, 0x68, 0x77, 0x69, 0x73, 0x65, 0x3b, 0x6d,
    0x6f, 0x64, 0x65, 0x6c, 0x2f, 0x6d, 0x6f, 0x64, 0x65, 0x6c, 0x2f, 0x64,
    0x65, 0x70, 0x74, 0x68, 0x77, 0x69, 0x73, 0x65, 0x5f, 0x63, 0x6f, 0x6e,
    0x76, 0x32, 0x64, 0x2f, 0x42, 0x69, 0x61, 0x73, 0x41, 0x64, 0x64, 0x2f,
    0x52, 0x65, 0x61, 0x64, 0x56, 0x61, 0x72, 0x69, 0x61, 0x62, 0x6c, 0x65,
    0x4f, 0x70, 0x3b, 0x6d, 0x6f, 0x64, 0x65, 0x6c, 0x2f, 0x6d, 0x6f, 0x64,
    0x65, 0x6c, 0x2f, 0x64, 0x65, 0x70, 0x74, 0x68, 0x77, 0x69, 0x73, 0x65,
    0x5f, 0x63, 0x6f, 0x6e, 0x76, 0x32, 0x64, 0x2f, 0x42, 0x69, 0x61, 0x73,
    0x41, 0x64, 0x64, 0x00, 0x01, 0x00, 0x00, 0x00, 0x10, 0x00, 0x00, 0x00,
    0x9e, 0xf9, 0xff, 0xff, 0x00, 0x00, 0x00, 0x01, 0x14, 0x00, 0x00, 0x00,
    0xa8, 0x01, 0x00, 0x00, 0x0a, 0x00, 0x00, 0x00, 0x00, 0x00, 0x00, 0x09,
    0xbc, 0x01, 0x00, 0x00, 0x0c, 0xf9, 0xff, 0xff, 0x08, 0x00, 0x00, 0x00,
    0x0c, 0x01, 0x00, 0x00, 0x20, 0x00, 0x00, 0x00, 0x00, 0x00, 0x00, 0x00,
    0x00, 0x00, 0x00, 0x00, 0x00, 0x00, 0x00, 0x00, 0x00, 0x00, 0x00, 0x00,
    0x00, 0x00, 0x00, 0x00, 0x00, 0x00, 0x00, 0x00, 0x00, 0x00, 0x00, 0x00,
    0x00, 0x00, 0x00, 0x00, 0x00, 0x00, 0x00, 0x00, 0x00, 0x00, 0x00, 0x00,
    0x00, 0x00, 0x00, 0x00, 0x00, 0x00, 0x00, 0x00, 0x00, 0x00, 0x00, 0x00,
    0x00, 0x00, 0x00, 0x00, 0x00, 0x00, 0x00, 0x00, 0x00, 0x00, 0x00, 0x00,
    0x00, 0x00, 0x00, 0x00, 0x00, 0x00, 0x00, 0x00, 0x00, 0x00, 0x00, 0x00,
    0x00, 0x00, 0x00, 0x00, 0x00, 0x00, 0x00, 0x00, 0x00, 0x00, 0x00, 0x00,
    0x00, 0x00, 0x00, 0x00, 0x00, 0x00, 0x00, 0x00, 0x00, 0x00, 0x00, 0x00,
    0x00, 0x00, 0x00, 0x00, 0x00, 0x00, 0x00, 0x00, 0x00, 0x00, 0x00, 0x00,
    0x00, 0x00, 0x00, 0x00, 0x00, 0x00, 0x00, 0x00, 0x00, 0x00, 0x00, 0x00,
    0x00, 0x00, 0x00, 0x00, 0x00, 0x00, 0x00, 0x00, 0x00, 0x00, 0x00, 0x00,
    0x00, 0x00, 0x00, 0x00, 0x00, 0x00, 0x00, 0x00, 0x00, 0x00, 0x00, 0x00,
    0x00, 0x00, 0x00, 0x00, 0x00, 0x00, 0x00, 0x00, 0x00, 0x00, 0x00, 0x00,
    0x00, 0x00, 0x00, 0x00, 0x00, 0x00, 0x00, 0x00, 0x00, 0x00, 0x00, 0x00,
    0x00, 0x00, 0x00, 0x00, 0x00, 0x00, 0x00, 0x00, 0x00, 0x00, 0x00, 0x00,
    0x00, 0x00, 0x00, 0x00, 0x00, 0x00, 0x00, 0x00, 0x00, 0x00, 0x00, 0x00,
    0x00, 0x00, 0x00, 0x00, 0x00, 0x00, 0x00, 0x00, 0x00, 0x00, 0x00, 0x00,
    0x00, 0x00, 0x00, 0x00, 0x00, 0x00, 0x00, 0x00, 0x00, 0x00, 0x00, 0x00,
    0x00, 0x00, 0x00, 0x00, 0x00, 0x00, 0x00, 0x00, 0x00, 0x00, 0x00, 0x00,
    0x00, 0x00, 0x00, 0x00, 0x00, 0x00, 0x00, 0x00, 0x00, 0x00, 0x00, 0x00,
    0x00, 0x00, 0x00, 0x00, 0x00, 0x00, 0x00, 0x00, 0x00, 0x00, 0x00, 0x00,
    0x00, 0x00, 0x00, 0x00, 0x20, 0x00, 0x00, 0x00, 0xca, 0x86, 0x41, 0x3e,
    0xd6, 0xd8, 0x4e, 0x3e, 0x73, 0x2c, 0xf2, 0x3d, 0xd4, 0xf0, 0x18, 0x3e,
    0x35, 0xc8, 0x26, 0x3e, 0x53, 0xef, 0x0e, 0x3e, 0x72, 0x5b, 0xec, 0x3d,
    0x2b, 0x37, 0xd9, 0x3d, 0x55, 0x83, 0x43, 0x3e, 0x81, 0xd2, 0x0c, 0x3e,
    0x2a, 0x9a, 0xdc, 0x3d, 0x11, 0xcc, 0x00, 0x3e, 0x0f, 0xc9, 0xb1, 0x3d,
    0x38, 0xa5, 0x2f, 0x3e, 0xed, 0x9c, 0x07, 0x3e, 0xec, 0x3c, 0xc8, 0x3d,
    0x4f, 0x8d, 0xe8, 0x3d, 0x33, 0x71, 0x06, 0x3e, 0x3b, 0x38, 0x2a, 0x3e,
    0x3b, 0xaf, 0x09, 0x3e, 0x0b, 0x86, 0x07, 0x3e, 0x0c, 0x78, 0x05, 0x3e,
    0x5a, 0xcb, 0xfc, 0x3d, 0xf3, 0xb5, 0x16, 0x3e, 0xcd, 0xc9, 0x71, 0x3e,
    0x14, 0x70, 0x28, 0x3e, 0x3a, 0x60, 0x25, 0x3e, 0x74, 0x71, 0xf8, 0x3d,
    0xc7, 0x91, 0xbc, 0x3d, 0x75, 0xc5, 0x12, 0x3e, 0x80, 0x90, 0x2e, 0x3e,
    0x23, 0x39, 0x42, 0x3e, 0x1b, 0x00, 0x00, 0x00, 0x6d, 0x6f, 0x64, 0x65,
    0x6c, 0x2f, 0x6d, 0x6f, 0x64, 0x65, 0x6c, 0x2f, 0x63, 0x6f, 0x6e, 0x76,
    0x32, 0x64, 0x5f, 0x31, 0x2f, 0x43, 0x6f, 0x6e, 0x76, 0x32, 0x44, 0x00,
    0x04, 0x00, 0x00, 0x00, 0x20, 0x00, 0x00, 0x00, 0x01, 0x00, 0x00, 0x00,
    0x01, 0x00, 0x00, 0x00, 0x10, 0x00, 0x00, 0x00, 0x86, 0xfb, 0xff, 0xff,
    0x00, 0x00, 0x00, 0x01, 0x14, 0x00, 0x00, 0x00, 0xa4, 0x01, 0x00, 0x00,
    0x09, 0x00, 0x00, 0x00, 0x00, 0x00, 0x00, 0x02, 0x50, 0x02, 0x00, 0x00,
    0xf4, 0xfa, 0xff, 0xff, 0x08, 0x00, 0x00, 0x00, 0x08, 0x01, 0x00, 0x00,
    0x20, 0x00, 0x00, 0x00, 0x00, 0x00, 0x00, 0x00, 0x00, 0x00, 0x00, 0x00,
    0x00, 0x00, 0x00, 0x00, 0x00, 0x00, 0x00, 0x00, 0x00, 0x00, 0x00, 0x00,
    0x00, 0x00, 0x00, 0x00, 0x00, 0x00, 0x00, 0x00, 0x00, 0x00, 0x00, 0x00,
    0x00, 0x00, 0x00, 0x00, 0x00, 0x00, 0x00, 0x00, 0x00, 0x00, 0x00, 0x00,
    0x00, 0x00, 0x00, 0x00, 0x00, 0x00, 0x00, 0x00, 0x00, 0x00, 0x00, 0x00,
    0x00, 0x00, 0x00, 0x00, 0x00, 0x00, 0x00, 0x00, 0x00, 0x00, 0x00, 0x00,
    0x00, 0x00, 0x00, 0x00, 0x00, 0x00, 0x00, 0x00, 0x00, 0x00, 0x00, 0x00,
    0x00, 0x00, 0x00, 0x00, 0x00, 0x00, 0x00, 0x00, 0x00, 0x00, 0x00, 0x00,
    0x00, 0x00, 0x00, 0x00, 0x00, 0x00, 0x00, 0x00, 0x00, 0x00, 0x00, 0x00,
    0x00, 0x00, 0x00, 0x00, 0x00, 0x00, 0x00, 0x00, 0x00, 0x00, 0x00, 0x00,
    0x00, 0x00, 0x00, 0x00, 0x00, 0x00, 0x00, 0x00, 0x00, 0x00, 0x00, 0x00,
    0x00, 0x00, 0x00, 0x00, 0x00, 0x00, 0x00, 0x00, 0x00, 0x00, 0x00, 0x00,
    0x00, 0x00, 0x00, 0x00, 0x00, 0x00, 0x00, 0x00, 0x00, 0x00, 0x00, 0x00,
    0x00, 0x00, 0x00, 0x00, 0x00, 0x00, 0x00, 0x00, 0x00, 0x00, 0x00, 0x00,
    0x00, 0x00, 0x00, 0x00, 0x00, 0x00, 0x00, 0x00, 0x00, 0x00, 0x00, 0x00,
    0x00, 0x00, 0x00, 0x00, 0x00, 0x00, 0x00, 0x00, 0x00, 0x00, 0x00, 0x00,
    0x00, 0x00, 0x00, 0x00, 0x00, 0x00, 0x00, 0x00, 0x00, 0x00, 0x00, 0x00,
    0x00, 0x00, 0x00, 0x00, 0x00, 0x00, 0x00, 0x00, 0x00, 0x00, 0x00, 0x00,
    0x00, 0x00, 0x00, 0x00, 0x00, 0x00, 0x00, 0x00, 0x00, 0x00, 0x00, 0x00,
    0x00, 0x00, 0x00, 0x00, 0x00, 0x00, 0x00, 0x00, 0x00, 0x00, 0x00, 0x00,
    0x00, 0x00, 0x00, 0x00, 0x00, 0x00, 0x00, 0x00, 0x00, 0x00, 0x00, 0x00,
    0x00, 0x00, 0x00, 0x00, 0x00, 0x00, 0x00, 0x00, 0x20, 0x00, 0x00, 0x00,
    0xbf, 0x88, 0xbb, 0x3b, 0x34, 0x71, 0xc8, 0x3b, 0xca, 0xac, 0x6a, 0x3b,
    0x80, 0x34, 0x94, 0x3b, 0x29, 0x9e, 0xa1, 0x3b, 0x4f, 0x82, 0x8a, 0x3b,
    0xe4, 0x09, 0x65, 0x3b, 0x59, 0x7d, 0x52, 0x3b, 0x8b, 0x75, 0xbd, 0x3b,
    0x3c, 0x76, 0x88, 0x3b, 0x7f, 0xc5, 0x55, 0x3b, 0x3d, 0x9e, 0x79, 0x3b,
    0xcb, 0x47, 0x2c, 0x3b, 0xea, 0x34, 0xaa, 0x3b, 0xf3, 0x69, 0x83, 0x3b,
    0xae, 0x09, 0x42, 0x3b, 0xeb, 0x59, 0x61, 0x3b, 0x81, 0x47, 0x82, 0x3b,
    0xef, 0xf2, 0xa4, 0x3b, 0xd6, 0x6b, 0x85, 0x3b, 0xc7, 0x53, 0x83, 0x3b,
    0x11, 0x56, 0x81, 0x3b, 0x81, 0xf7, 0x74, 0x3b, 0x4c, 0x0b, 0x92, 0x3b,
    0x32, 0x4d, 0xea, 0x3b, 0xe8, 0x38, 0xa3, 0x3b, 0x54, 0x41, 0xa0, 0x3b,
    0x19, 0xc0, 0x70, 0x3b, 0x07, 0xbb, 0x36, 0x3b, 0x08, 0x3a, 0x8e, 0x3b,
    0xc4, 0x28, 0xa9, 0x3b, 0x92, 0x35, 0xbc, 0x3b, 0xb0, 0x00, 0x00, 0x00,
    0x6d, 0x6f, 0x64, 0x65, 0x6c, 0x2f, 0x6d, 0x6f, 0x64, 0x65, 0x6c, 0x2f,
    0x72, 0x65, 0x5f, 0x6c, 0x75, 0x5f, 0x32, 0x2f, 0x52, 0x65, 0x6c, 0x75,
    0x3b, 0x6d, 0x6f, 0x64, 0x65, 0x6c, 0x2f, 0x6d, 0x6f, 0x64, 0x65, 0x6c,
    0x2f, 0x62, 0x61, 0x74, 0x63, 0x68, 0x5f, 0x6e, 0x6f, 0x72, 0x6d, 0x61,
    0x6c, 0x69, 0x7a, 0x61, 0x74, 0x69, 0x6f, 0x6e, 0x5f, 0x32, 0x2f, 0x46,
    0x75, 0x73, 0x65, 0x64, 0x42, 0x61, 0x74, 0x63, 0x68, 0x4e, 0x6f, 0x72,
    0x6d, 0x56, 0x33, 0x3b, 0x6d, 0x6f, 0x64, 0x65, 0x6c, 0x2f, 0x6d, 0x6f,
    0x64, 0x65, 0x6c, 0x2f, 0x63, 0x6f, 0x6e, 0x76, 0x32, 0x64, 0x5f, 0x31,
    0x2f, 0x42, 0x69, 0x61, 0x73, 0x41, 0x64, 0x64, 0x2f, 0x52, 0x65, 0x61,
    0x64, 0x56, 0x61, 0x72, 0x69, 0x61, 0x62, 0x6c, 0x65, 0x4f, 0x70, 0x3b,
    0x6d, 0x6f, 0x64, 0x65, 0x6c, 0x2f, 0x6d, 0x6f, 0x64, 0x65, 0x6c, 0x2f,
    0x63, 0x6f, 0x6e, 0x76, 0x32, 0x64, 0x5f, 0x31, 0x2f, 0x42, 0x69, 0x61,
    0x73, 0x41, 0x64, 0x64, 0x3b, 0x6d, 0x6f, 0x64, 0x65, 0x6c, 0x2f, 0x6d,
    0x6f, 0x64, 0x65, 0x6c, 0x2f, 0x63, 0x6f, 0x6e, 0x76, 0x32, 0x64, 0x5f,
    0x31, 0x2f, 0x43, 0x6f, 0x6e, 0x76, 0x32, 0x44, 0x00, 0x00, 0x00, 0x00,
    0x01, 0x00, 0x00, 0x00, 0x20, 0x00, 0x00, 0x00, 0xf6, 0xfd, 0xff, 0xff,
    0x00, 0x00, 0x00, 0x01, 0x14, 0x00, 0x00, 0x00, 0x30, 0x00, 0x00, 0x00,
    0x08, 0x00, 0x00, 0x00, 0x00, 0x00, 0x00, 0x09, 0x44, 0x00, 0x00, 0x00,
    0x64, 0xfd, 0xff, 0xff, 0x08, 0x00, 0x00, 0x00, 0x10, 0x00, 0x00, 0x00,
    0x01, 0x00, 0x00, 0x00, 0x00, 0x00, 0x00, 0x00, 0x00, 0x00, 0x00, 0x00,
    0x01, 0x00, 0x00, 0x00, 0xd6, 0xad, 0xf7, 0x3c, 0x18, 0x00, 0x00, 0x00,
    0x6d, 0x6f, 0x64, 0x65, 0x6c, 0x2f, 0x6d, 0x6f, 0x64, 0x65, 0x6c, 0x2f,
    0x64, 0x65, 0x6e, 0x73, 0x65, 0x2f, 0x4d, 0x61, 0x74, 0x4d, 0x75, 0x6c,
    0x00, 0x00, 0x00, 0x00, 0x02, 0x00, 0x00, 0x00, 0x23, 0x00, 0x00, 0x00,
    0x20, 0x00, 0x00, 0x00, 0x5e, 0xfe, 0xff, 0xff, 0x00, 0x00, 0x00, 0x01,
    0x14, 0x00, 0x00, 0x00, 0x34, 0x00, 0x00, 0x00, 0x07, 0x00, 0x00, 0x00,
    0x00, 0x00, 0x00, 0x02, 0x58, 0x00, 0x00, 0x00, 0xcc, 0xfd, 0xff, 0xff,
    0x08, 0x00, 0x00, 0x00, 0x14, 0x00, 0x00, 0x00, 0x01, 0x00, 0x00, 0x00,
    0x00, 0x00, 0x00, 0x00, 0x00, 0x00, 0x00, 0x00, 0x00, 0x00, 0x00, 0x00,
    0x01, 0x00, 0x00, 0x00, 0x26, 0x48, 0x2e, 0x3c, 0x28, 0x00, 0x00, 0x00,
    0x6d, 0x6f, 0x64, 0x65, 0x6c, 0x2f, 0x6d, 0x6f, 0x64, 0x65, 0x6c, 0x2f,
    0x64, 0x65, 0x6e, 0x73, 0x65, 0x2f, 0x42, 0x69, 0x61, 0x73, 0x41, 0x64,
    0x64, 0x2f, 0x52, 0x65, 0x61, 0x64, 0x56, 0x61, 0x72, 0x69, 0x61, 0x62,
    0x6c, 0x65, 0x4f, 0x70, 0x00, 0x00, 0x00, 0x00, 0x01, 0x00, 0x00, 0x00,
    0x23, 0x00, 0x00, 0x00, 0xd6, 0xfe, 0xff, 0xff, 0x00, 0x00, 0x00, 0x01,
    0x14, 0x00, 0x00, 0x00, 0x14, 0x00, 0x00, 0x00, 0x06, 0x00, 0x00, 0x00,
    0x00, 0x00, 0x00, 0x02, 0x28, 0x00, 0x00, 0x00, 0xc0, 0xfe, 0xff, 0xff,
    0x19, 0x00, 0x00, 0x00, 0x6d, 0x6f, 0x64, 0x65, 0x6c, 0x2f, 0x6d, 0x6f,
    0x64, 0x65, 0x6c, 0x2f, 0x66, 0x6c, 0x61, 0x74, 0x74, 0x65, 0x6e, 0x2f,
    0x43, 0x6f, 0x6e, 0x73, 0x74, 0x00, 0x00, 0x00, 0x01, 0x00, 0x00, 0x00,
    0x02, 0x00, 0x00, 0x00, 0x1e, 0xff, 0xff, 0xff, 0x00, 0x00, 0x00, 0x01,
    0x14, 0x00, 0x00, 0x00, 0x14, 0x00, 0x00, 0x00, 0x03, 0x00, 0x00, 0x00,
    0x00, 0x00, 0x00, 0x02, 0x2c, 0x00, 0x00, 0x00, 0x08, 0xff, 0xff, 0xff,
    0x1d, 0x00, 0x00, 0x00, 0x6d, 0x6f, 0x64, 0x65, 0x6c, 0x2f, 0x72, 0x65,
    0x73, 0x68, 0x61, 0x70, 0x65, 0x2f, 0x52, 0x65, 0x73, 0x68, 0x61, 0x70,
    0x65, 0x2f, 0x73, 0x68, 0x61, 0x70, 0x65, 0x2f, 0x33, 0x00, 0x00, 0x00,
    0x00, 0x00, 0x00, 0x00, 0x66, 0xff, 0xff, 0xff, 0x00, 0x00, 0x00, 0x01,
    0x14, 0x00, 0x00, 0x00, 0x14, 0x00, 0x00, 0x00, 0x04, 0x00, 0x00, 0x00,
    0x00, 0x00, 0x00, 0x02, 0x2c, 0x00, 0x00, 0x00, 0x50, 0xff, 0xff, 0xff,
    0x1d, 0x00, 0x00, 0x00, 0x6d, 0x6f, 0x64, 0x65, 0x6c, 0x2f, 0x72, 0x65,
    0x73, 0x68, 0x61, 0x70, 0x65, 0x2f, 0x52, 0x65, 0x73, 0x68, 0x61, 0x70,
    0x65, 0x2f, 0x73, 0x68, 0x61, 0x70, 0x65, 0x2f, 0x31, 0x00, 0x00, 0x00,
    0x00, 0x00, 0x00, 0x00, 0xae, 0xff, 0xff, 0xff, 0x00, 0x00, 0x00, 0x01,
    0x14, 0x00, 0x00, 0x00, 0x14, 0x00, 0x00, 0x00, 0x03, 0x00, 0x00, 0x00,
    0x00, 0x00, 0x00, 0x02, 0x30, 0x00, 0x00, 0x00, 0x98, 0xff, 0xff, 0xff,
    0x23, 0x00, 0x00, 0x00, 0x6d, 0x6f, 0x64, 0x65, 0x6c, 0x2f, 0x72, 0x65,
    0x73, 0x68, 0x61, 0x70, 0x65, 0x2f, 0x73, 0x74, 0x72, 0x69, 0x64, 0x65,
    0x64, 0x5f, 0x73, 0x6c, 0x69, 0x63, 0x65, 0x2f, 0x73, 0x74, 0x61, 0x63,
    0x6b, 0x5f, 0x31, 0x00, 0x01, 0x00, 0x00, 0x00, 0x01, 0x00, 0x00, 0x00,
    0x00, 0x00, 0x16, 0x00, 0x1c, 0x00, 0x18, 0x00, 0x17, 0x00, 0x10, 0x00,
    0x0c, 0x00, 0x08, 0x00, 0x00, 0x00, 0x00, 0x00, 0x00, 0x00, 0x07, 0x00,
    0x16, 0x00, 0x00, 0x00, 0x00, 0x00, 0x00, 0x01, 0x18, 0x00, 0x00, 0x00,
    0x18, 0x00, 0x00, 0x00, 0x02, 0x00, 0x00, 0x00, 0x00, 0x00, 0x00, 0x02,
    0x34, 0x00, 0x00, 0x00, 0x04, 0x00, 0x04, 0x00, 0x04, 0x00, 0x00, 0x00,
    0x21, 0x00, 0x00, 0x00, 0x6d, 0x6f, 0x64, 0x65, 0x6c, 0x2f, 0x72, 0x65,
    0x73, 0x68, 0x61, 0x70, 0x65, 0x2f, 0x73, 0x74, 0x72, 0x69, 0x64, 0x65,
    0x64, 0x5f, 0x73, 0x6c, 0x69, 0x63, 0x65, 0x2f, 0x73, 0x74, 0x61, 0x63,
    0x6b, 0x00, 0x00, 0x00, 0x01, 0x00, 0x00, 0x00, 0x01, 0x00, 0x00, 0x00,
    0x00, 0x00, 0x16, 0x00, 0x20, 0x00, 0x1c, 0x00, 0x1b, 0x00, 0x14, 0x00,
    0x10, 0x00, 0x0c, 0x00, 0x00, 0x00, 0x00, 0x00, 0x08, 0x00, 0x07, 0x00,
    0x16, 0x00, 0x00, 0x00, 0x00, 0x00, 0x00, 0x01, 0x18, 0x00, 0x00, 0x00,
    0x2c, 0x00, 0x00, 0x00, 0x4c, 0x00, 0x00, 0x00, 0x01, 0x00, 0x00, 0x00,
    0x00, 0x00, 0x00, 0x09, 0x60, 0x00, 0x00, 0x00, 0x02, 0x00, 0x00, 0x00,
    0xff, 0xff, 0xff, 0xff, 0x40, 0x06, 0x00, 0x00, 0x0c, 0x00, 0x0c, 0x00,
    0x00, 0x00, 0x00, 0x00, 0x08, 0x00, 0x04, 0x00, 0x0c, 0x00, 0x00, 0x00,
    0x08, 0x00, 0x00, 0x00, 0x14, 0x00, 0x00, 0x00, 0x01, 0x00, 0x00, 0x00,
    0xfd, 0xff, 0xff, 0xff, 0xff, 0xff, 0xff, 0xff, 0x00, 0x00, 0x00, 0x00,
    0x01, 0x00, 0x00, 0x00, 0xa1, 0xa0, 0xa0, 0x3e, 0x19, 0x00, 0x00, 0x00,
    0x73, 0x65, 0x72, 0x76, 0x69, 0x6e, 0x67, 0x5f, 0x64, 0x65, 0x66, 0x61,
    0x75, 0x6c, 0x74, 0x5f, 0x69, 0x6e, 0x70, 0x75, 0x74, 0x5f, 0x31, 0x3a,
    0x30, 0x00, 0x00, 0x00, 0x02, 0x00, 0x00, 0x00, 0x01, 0x00, 0x00, 0x00,
    0x40, 0x06, 0x00, 0x00, 0x09, 0x00, 0x00, 0x00, 0xb0, 0x00, 0x00, 0x00,
    0x94, 0x00, 0x00, 0x00, 0x84, 0x00, 0x00, 0x00, 0x74, 0x00, 0x00, 0x00,
    0x60, 0x00, 0x00, 0x00, 0x40, 0x00, 0x00, 0x00, 0x2c, 0x00, 0x00, 0x00,
    0x18, 0x00, 0x00, 0x00, 0x04, 0x00, 0x00, 0x00, 0xc0, 0xff, 0xff, 0xff,
    0x19, 0x00, 0x00, 0x00, 0x02, 0x00, 0x00, 0x00, 0x00, 0x00, 0x00, 0x19,
    0xd0, 0xff, 0xff, 0xff, 0x09, 0x00, 0x00, 0x00, 0x04, 0x00, 0x00, 0x00,
    0x00, 0x00, 0x00, 0x09, 0xe0, 0xff, 0xff, 0xff, 0x01, 0x00, 0x00, 0x00,
    0x02, 0x00, 0x00, 0x00, 0x00, 0x00, 0x00, 0x01, 0xf0, 0xff, 0xff, 0xff,
    0x04, 0x00, 0x00, 0x00, 0x03, 0x00, 0x00, 0x00, 0x00, 0x00, 0x00, 0x04,
    0x0c, 0x00, 0x10, 0x00, 0x0f, 0x00, 0x00, 0x00, 0x08, 0x00, 0x04, 0x00,
    0x0c, 0x00, 0x00, 0x00, 0x03, 0x00, 0x00, 0x00, 0x03, 0x00, 0x00, 0x00,
    0x00, 0x00, 0x00, 0x03, 0xdc, 0xff, 0xff, 0xff, 0x16, 0x00, 0x00, 0x00,
    0x00, 0x00, 0x00, 0x16, 0xe8, 0xff, 0xff, 0xff, 0x53, 0x00, 0x00, 0x00,
    0x00, 0x00, 0x00, 0x53, 0xf4, 0xff, 0xff, 0xff, 0x2d, 0x00, 0x00, 0x00,
    0x00, 0x00, 0x00, 0x2d, 0x0c, 0x00, 0x0c, 0x00, 0x0b, 0x00, 0x00, 0x00,
    0x00, 0x00, 0x04, 0x00, 0x0c, 0x00, 0x00, 0x00, 0x4d, 0x00, 0x00, 0x00,
    0x00, 0x00, 0x00, 0x4d};

const int g_model_len = sizeof(g_model);
